/* Archivo generado automáticamente por train_har_cnn.py */
#include <stdint.h>

const unsigned int g_har_model_data_size = 8760;
const unsigned char g_har_model_data[] = {
0x1c, 0x00, 0x00, 0x00, 0x54, 0x46, 0x4c, 0x33, 0x14, 0x00, 0x20, 0x00, 
0x1c, 0x00, 0x18, 0x00, 0x14, 0x00, 0x10, 0x00, 0x0c, 0x00, 0x00, 0x00, 
0x08, 0x00, 0x04, 0x00, 0x14, 0x00, 0x00, 0x00, 0x1c, 0x00, 0x00, 0x00, 
0x8c, 0x00, 0x00, 0x00, 0xe4, 0x00, 0x00, 0x00, 0x10, 0x10, 0x00, 0x00, 
0x20, 0x10, 0x00, 0x00, 0x74, 0x21, 0x00, 0x00, 0x03, 0x00, 0x00, 0x00, 
0x01, 0x00, 0x00, 0x00, 0x04, 0x00, 0x00, 0x00, 0xa6, 0xed, 0xff, 0xff, 
0x0c, 0x00, 0x00, 0x00, 0x1c, 0x00, 0x00, 0x00, 0x3c, 0x00, 0x00, 0x00, 
0x0f, 0x00, 0x00, 0x00, 0x73, 0x65, 0x72, 0x76, 0x69, 0x6e, 0x67, 0x5f, 
0x64, 0x65, 0x66, 0x61, 0x75, 0x6c, 0x74, 0x00, 0x01, 0x00, 0x00, 0x00, 
0x04, 0x00, 0x00, 0x00, 0x90, 0xff, 0xff, 0xff, 0x17, 0x00, 0x00, 0x00, 
0x04, 0x00, 0x00, 0x00, 0x08, 0x00, 0x00, 0x00, 0x6f, 0x75, 0x74, 0x70, 
0x75, 0x74, 0x5f, 0x30, 0x00, 0x00, 0x00, 0x00, 0x01, 0x00, 0x00, 0x00, 
0x04, 0x00, 0x00, 0x00, 0xba, 0xef, 0xff, 0xff, 0x04, 0x00, 0x00, 0x00, 
0x0c, 0x00, 0x00, 0x00, 0x6b, 0x65, 0x72, 0x61, 0x73, 0x5f, 0x74, 0x65, 
0x6e, 0x73, 0x6f, 0x72, 0x00, 0x00, 0x00, 0x00, 0x02, 0x00, 0x00, 0x00, 
0x34, 0x00, 0x00, 0x00, 0x04, 0x00, 0x00, 0x00, 0xdc, 0xff, 0xff, 0xff, 
0x1a, 0x00, 0x00, 0x00, 0x04, 0x00, 0x00, 0x00, 0x13, 0x00, 0x00, 0x00, 
0x43, 0x4f, 0x4e, 0x56, 0x45, 0x52, 0x53, 0x49, 0x4f, 0x4e, 0x5f, 0x4d, 
0x45, 0x54, 0x41, 0x44, 0x41, 0x54, 0x41, 0x00, 0x08, 0x00, 0x0c, 0x00, 
0x08, 0x00, 0x04, 0x00, 0x08, 0x00, 0x00, 0x00, 0x19, 0x00, 0x00, 0x00, 
0x04, 0x00, 0x00, 0x00, 0x13, 0x00, 0x00, 0x00, 0x6d, 0x69, 0x6e, 0x5f, 
0x72, 0x75, 0x6e, 0x74, 0x69, 0x6d, 0x65, 0x5f, 0x76, 0x65, 0x72, 0x73, 
0x69, 0x6f, 0x6e, 0x00, 0x1b, 0x00, 0x00, 0x00, 0x28, 0x0f, 0x00, 0x00, 
0x20, 0x0f, 0x00, 0x00, 0x0c, 0x0f, 0x00, 0x00, 0xf8, 0x0e, 0x00, 0x00, 
0xe8, 0x0c, 0x00, 0x00, 0x58, 0x08, 0x00, 0x00, 0xc8, 0x07, 0x00, 0x00, 
0x78, 0x07, 0x00, 0x00, 0x58, 0x07, 0x00, 0x00, 0x3c, 0x07, 0x00, 0x00, 
0x20, 0x07, 0x00, 0x00, 0x04, 0x07, 0x00, 0x00, 0xf4, 0x00, 0x00, 0x00, 
0xec, 0x00, 0x00, 0x00, 0xe4, 0x00, 0x00, 0x00, 0xdc, 0x00, 0x00, 0x00, 
0xd4, 0x00, 0x00, 0x00, 0xcc, 0x00, 0x00, 0x00, 0xc4, 0x00, 0x00, 0x00, 
0xbc, 0x00, 0x00, 0x00, 0xb4, 0x00, 0x00, 0x00, 0xac, 0x00, 0x00, 0x00, 
0xa4, 0x00, 0x00, 0x00, 0x9c, 0x00, 0x00, 0x00, 0x94, 0x00, 0x00, 0x00, 
0x74, 0x00, 0x00, 0x00, 0x04, 0x00, 0x00, 0x00, 0xa2, 0xf0, 0xff, 0xff, 
0x04, 0x00, 0x00, 0x00, 0x60, 0x00, 0x00, 0x00, 0x0c, 0x00, 0x00, 0x00, 
0x08, 0x00, 0x0e, 0x00, 0x08, 0x00, 0x04, 0x00, 0x08, 0x00, 0x00, 0x00, 
0x10, 0x00, 0x00, 0x00, 0x28, 0x00, 0x00, 0x00, 0x00, 0x00, 0x06, 0x00, 
0x08, 0x00, 0x04, 0x00, 0x06, 0x00, 0x00, 0x00, 0x04, 0x00, 0x00, 0x00, 
0x01, 0x00, 0x00, 0x00, 0xea, 0x03, 0x00, 0x00, 0x0c, 0x00, 0x18, 0x00, 
0x14, 0x00, 0x10, 0x00, 0x0c, 0x00, 0x04, 0x00, 0x0c, 0x00, 0x00, 0x00, 
0xa6, 0x54, 0x3e, 0x57, 0x87, 0x07, 0x08, 0xca, 0x02, 0x00, 0x00, 0x00, 
0x02, 0x00, 0x00, 0x00, 0x04, 0x00, 0x00, 0x00, 0x06, 0x00, 0x00, 0x00, 
0x32, 0x2e, 0x32, 0x31, 0x2e, 0x30, 0x00, 0x00, 0x0e, 0xf1, 0xff, 0xff, 
0x04, 0x00, 0x00, 0x00, 0x10, 0x00, 0x00, 0x00, 0x32, 0x2e, 0x34, 0x2e, 
0x30, 0x00, 0x00, 0x00, 0x00, 0x00, 0x00, 0x00, 0x00, 0x00, 0x00, 0x00, 
0x98, 0xe0, 0xff, 0xff, 0x9c, 0xe0, 0xff, 0xff, 0xa0, 0xe0, 0xff, 0xff, 
0xa4, 0xe0, 0xff, 0xff, 0xa8, 0xe0, 0xff, 0xff, 0xac, 0xe0, 0xff, 0xff, 
0xb0, 0xe0, 0xff, 0xff, 0xb4, 0xe0, 0xff, 0xff, 0xb8, 0xe0, 0xff, 0xff, 
0xbc, 0xe0, 0xff, 0xff, 0xc0, 0xe0, 0xff, 0xff, 0xc4, 0xe0, 0xff, 0xff, 
0x5a, 0xf1, 0xff, 0xff, 0x04, 0x00, 0x00, 0x00, 0x00, 0x06, 0x00, 0x00, 
0x1f, 0xfb, 0xf1, 0x60, 0x4f, 0xe3, 0xff, 0x39, 0xf3, 0x7b, 0x64, 0x27, 
0xde, 0x20, 0xf6, 0x7a, 0x5d, 0x7f, 0x47, 0x69, 0xfe, 0x30, 0xe5, 0x2b, 
0xed, 0x31, 0x22, 0x7e, 0x47, 0x48, 0x45, 0xde, 0x5a, 0x18, 0xcb, 0x5f, 
0x5d, 0xd7, 0xe5, 0x67, 0xcd, 0x35, 0x1c, 0x0a, 0x61, 0x33, 0x46, 0x6b, 
0x38, 0x55, 0x1a, 0x1d, 0x15, 0xd4, 0x3c, 0x7f, 0xdd, 0x04, 0xcf, 0x1b, 
0xe3, 0x0e, 0x6d, 0x13, 0xe1, 0xfd, 0xd8, 0x5e, 0xc3, 0x2f, 0x44, 0x21, 
0x56, 0x08, 0xff, 0x6b, 0xf5, 0xf9, 0xe5, 0xeb, 0x3c, 0x4e, 0x35, 0x02, 
0xa7, 0x59, 0x05, 0x43, 0xf3, 0x2f, 0x49, 0x5d, 0x12, 0xff, 0x42, 0x3a, 
0x75, 0x77, 0x43, 0x26, 0x4f, 0x0a, 0x6a, 0x02, 0x03, 0xe2, 0x70, 0xd5, 
0x47, 0x51, 0xec, 0xf3, 0x5e, 0xe7, 0x32, 0x53, 0x0f, 0x3f, 0x5e, 0xcd, 
0xc0, 0x10, 0x48, 0x3e, 0xe2, 0x5f, 0xec, 0xe6, 0x37, 0x63, 0xd1, 0xb6, 
0x08, 0x49, 0x19, 0x48, 0x34, 0x48, 0xde, 0x40, 0xce, 0x7f, 0x36, 0x4e, 
0xc2, 0x9d, 0xaf, 0xfc, 0x25, 0xa4, 0x27, 0xd6, 0xc1, 0x57, 0x84, 0x00, 
0x35, 0xa5, 0x28, 0xf0, 0x25, 0xa6, 0x0a, 0xb8, 0x2b, 0x50, 0xd5, 0xd4, 
0x8b, 0xd0, 0x32, 0xee, 0x30, 0xaa, 0x0d, 0x2e, 0x1e, 0x5a, 0x4d, 0x28, 
0x99, 0xff, 0xf2, 0x59, 0x62, 0xdf, 0x42, 0x9d, 0x4c, 0x3e, 0x81, 0x07, 
0xe0, 0x2b, 0x19, 0x46, 0x2b, 0xc5, 0xdd, 0x52, 0xcf, 0x74, 0xdf, 0x67, 
0xe8, 0x01, 0x56, 0x44, 0x03, 0x1a, 0x43, 0xd6, 0x49, 0x40, 0x44, 0xf5, 
0x56, 0x46, 0x12, 0x55, 0x22, 0x5b, 0x55, 0x0e, 0x1a, 0x48, 0x73, 0xf3, 
0x21, 0xfd, 0x70, 0x3c, 0xc2, 0xdf, 0x6d, 0x43, 0x7c, 0x1b, 0xdc, 0x7f, 
0x37, 0x7f, 0xce, 0x30, 0x2e, 0xd7, 0x56, 0x3d, 0x32, 0xf1, 0xdf, 0x0d, 
0x08, 0x27, 0x26, 0x35, 0x4b, 0x5a, 0x1b, 0x12, 0x6a, 0x4a, 0x12, 0x13, 
0x2e, 0x13, 0x29, 0x35, 0x01, 0x4f, 0x2e, 0x29, 0x56, 0x11, 0x1f, 0x6b, 
0x33, 0xd8, 0x3e, 0x1b, 0xd6, 0xe5, 0x40, 0xe2, 0x4c, 0xec, 0x21, 0x75, 
0x5b, 0x68, 0x0c, 0x28, 0x18, 0x25, 0x5d, 0x72, 0x61, 0x3a, 0xe7, 0x09, 
0xd7, 0x28, 0x13, 0x73, 0xea, 0x00, 0xfd, 0xf3, 0x0d, 0x3b, 0xe8, 0x32, 
0x03, 0xea, 0x54, 0xe4, 0xf6, 0x73, 0x7f, 0x6e, 0x75, 0x65, 0x4a, 0x71, 
0xe0, 0xd0, 0xde, 0x10, 0x2a, 0x2c, 0x6c, 0x0f, 0x5b, 0x53, 0x19, 0xd6, 
0x44, 0x4d, 0xd5, 0xc2, 0xee, 0x30, 0x94, 0x0c, 0x5b, 0xea, 0x66, 0x5b, 
0xb7, 0x8c, 0x6e, 0x2a, 0x93, 0xd0, 0x67, 0xfb, 0x56, 0x16, 0xc7, 0x49, 
0xdd, 0x8d, 0x8d, 0xb5, 0x69, 0x84, 0x85, 0x02, 0x03, 0x89, 0x89, 0xa4, 
0xae, 0xf9, 0x31, 0x0c, 0xa1, 0x79, 0xde, 0xab, 0xec, 0x81, 0xf6, 0x65, 
0x3d, 0x58, 0x17, 0x43, 0xf9, 0x75, 0x39, 0x59, 0xd7, 0x45, 0x5b, 0x0d, 
0x06, 0x77, 0x4c, 0xdf, 0x1d, 0x7f, 0x45, 0x7d, 0xe5, 0xdd, 0xdf, 0x64, 
0x42, 0x68, 0xf4, 0x7a, 0x20, 0xf1, 0xd9, 0x03, 0x0a, 0x25, 0x39, 0x70, 
0x18, 0x0c, 0xde, 0x0e, 0x59, 0xde, 0x75, 0x74, 0x41, 0xfd, 0xe5, 0x61, 
0x45, 0x2c, 0x56, 0x13, 0x18, 0xf1, 0x34, 0x3c, 0x01, 0xda, 0x16, 0x2d, 
0x61, 0x48, 0x15, 0x4a, 0x25, 0xea, 0x6d, 0x70, 0xfd, 0x50, 0xd0, 0x09, 
0x39, 0x7f, 0xe4, 0xcd, 0xde, 0x3c, 0xd6, 0x50, 0x11, 0x2c, 0xcf, 0x31, 
0xd3, 0x57, 0x4a, 0xd6, 0x21, 0xdd, 0xe8, 0x3e, 0xce, 0xfb, 0x51, 0x72, 
0xbb, 0x4d, 0x9a, 0x20, 0xbb, 0x86, 0x9b, 0x81, 0x9d, 0x2b, 0x0a, 0x24, 
0x11, 0xc6, 0xb2, 0x96, 0x4c, 0x34, 0xf8, 0x01, 0xd7, 0x13, 0xd4, 0x38, 
0x59, 0x2c, 0xfa, 0xf1, 0xeb, 0x0f, 0x0a, 0xb7, 0x4b, 0x38, 0x40, 0x59, 
0x5a, 0x32, 0xff, 0xfa, 0xea, 0x89, 0xdc, 0xfc, 0x3a, 0x58, 0x2a, 0xe3, 
0x64, 0x14, 0xb6, 0xd4, 0x9a, 0x92, 0x19, 0x7b, 0xc5, 0x0c, 0x75, 0xc5, 
0x44, 0x03, 0x33, 0x49, 0x1c, 0x1d, 0x71, 0x41, 0x8f, 0x11, 0x7f, 0x2e, 
0x07, 0x74, 0x4b, 0x60, 0x2f, 0x4f, 0x4e, 0x1a, 0x28, 0x59, 0x6b, 0xd1, 
0x06, 0x2f, 0x5c, 0x31, 0x3c, 0x2d, 0xe0, 0xf3, 0xd4, 0xdb, 0xe9, 0xcb, 
0x4c, 0x4a, 0xd0, 0xbe, 0x0b, 0xf5, 0x8d, 0x81, 0x5b, 0xe6, 0x27, 0xe0, 
0x3e, 0xb9, 0x67, 0x04, 0xc5, 0xd0, 0xc2, 0x16, 0x46, 0x20, 0x26, 0x4f, 
0x4a, 0xee, 0xb3, 0x5f, 0xe6, 0xbc, 0xea, 0x1f, 0x82, 0x88, 0x55, 0xc7, 
0xd1, 0x2a, 0xcb, 0xd3, 0xda, 0xc9, 0x2e, 0xc6, 0x21, 0x56, 0x01, 0xd5, 
0x6e, 0x3c, 0x4d, 0x34, 0x15, 0xc0, 0xee, 0x49, 0x05, 0x45, 0x1c, 0x09, 
0x70, 0x29, 0x7f, 0xdd, 0x5f, 0xe8, 0x2a, 0xe7, 0x0e, 0xb0, 0xea, 0xef, 
0xf6, 0x23, 0x42, 0xe6, 0xc6, 0xe5, 0x39, 0x2c, 0x3c, 0x41, 0x48, 0xdd, 
0x92, 0x1c, 0xee, 0x75, 0x76, 0x30, 0x4a, 0x07, 0x6d, 0xc2, 0xf1, 0x3a, 
0x96, 0x6d, 0xc3, 0x0a, 0x37, 0x4e, 0x8a, 0x91, 0x3d, 0x5c, 0xc7, 0x1d, 
0x3b, 0x47, 0x14, 0x63, 0x75, 0x8a, 0xfe, 0xee, 0x97, 0x87, 0x92, 0x9c, 
0x85, 0x98, 0x54, 0x81, 0xa6, 0x61, 0xae, 0xd3, 0xfe, 0x19, 0x28, 0xed, 
0x24, 0xfa, 0xba, 0xb5, 0xdd, 0x01, 0xb6, 0x9f, 0xbc, 0xfd, 0x56, 0x26, 
0x88, 0xd3, 0x9a, 0x96, 0x3a, 0x02, 0xfa, 0x81, 0x30, 0x00, 0xb7, 0x95, 
0x20, 0xf7, 0xc7, 0x45, 0xd1, 0x0c, 0x2e, 0x3d, 0x2e, 0xcd, 0x9b, 0xf6, 
0x68, 0x00, 0xb5, 0x37, 0x5d, 0x8f, 0xfd, 0x2b, 0xf7, 0xa0, 0x8e, 0xc0, 
0xd7, 0x9a, 0xca, 0x43, 0xe5, 0xcf, 0x33, 0x5b, 0x04, 0x17, 0x2d, 0x24, 
0x7f, 0x3f, 0x29, 0x1d, 0xb3, 0x96, 0x3f, 0x10, 0x2b, 0x03, 0x75, 0x16, 
0xed, 0x26, 0x04, 0x1f, 0x5a, 0xc6, 0xf3, 0x4c, 0xee, 0xcf, 0x2a, 0x22, 
0x60, 0x39, 0xff, 0x16, 0x45, 0x4c, 0xe6, 0x28, 0x14, 0xe3, 0x54, 0x41, 
0xcf, 0x0d, 0x4e, 0x72, 0xbf, 0xeb, 0x65, 0x2b, 0x0f, 0x32, 0xe0, 0x06, 
0xad, 0x3a, 0x3d, 0xbe, 0x2d, 0xf3, 0x27, 0x81, 0x9e, 0x20, 0xe5, 0xda, 
0x48, 0xa1, 0x0a, 0xd9, 0x89, 0x9c, 0x84, 0x88, 0xcd, 0xc5, 0x8c, 0xc7, 
0x73, 0xb3, 0xfb, 0x65, 0xe8, 0xcc, 0x8e, 0x4c, 0x1c, 0xac, 0x9d, 0x5a, 
0x6c, 0x8a, 0xa8, 0xde, 0xc0, 0xa5, 0x4c, 0xb2, 0x6b, 0x28, 0x63, 0xd4, 
0x77, 0x0f, 0xa1, 0x38, 0x11, 0x4a, 0xa0, 0x1e, 0x22, 0x6d, 0x6d, 0x30, 
0x05, 0x98, 0x0c, 0x3d, 0x5c, 0x14, 0x00, 0xe6, 0x89, 0xb8, 0x00, 0xd6, 
0x13, 0xa8, 0x8d, 0x16, 0x40, 0x07, 0xc9, 0xb9, 0x1d, 0xcb, 0x43, 0x7f, 
0x92, 0x53, 0x89, 0xd5, 0x23, 0xaa, 0xaa, 0x17, 0xfd, 0xaa, 0xcb, 0xca, 
0x32, 0x38, 0x63, 0x5e, 0x22, 0xc5, 0xc8, 0xe2, 0x8b, 0x44, 0x2e, 0xf9, 
0x37, 0x4d, 0x01, 0xff, 0x4c, 0x3a, 0x8d, 0x09, 0xf2, 0x10, 0xee, 0x28, 
0xf5, 0x89, 0xf2, 0x2e, 0xc7, 0xd9, 0x26, 0x81, 0x0f, 0x16, 0xb3, 0x1f, 
0xc6, 0x27, 0xb1, 0x1f, 0x1e, 0xcd, 0xaa, 0xea, 0xf1, 0xd5, 0xe8, 0x39, 
0x65, 0xea, 0x54, 0xc0, 0x6c, 0x66, 0x2b, 0x08, 0x47, 0xcc, 0xf7, 0x6b, 
0x45, 0x17, 0x82, 0x79, 0x07, 0x39, 0xb7, 0x44, 0x24, 0x33, 0x25, 0xf3, 
0xe2, 0xd1, 0x18, 0x60, 0xdb, 0x1b, 0xb2, 0xeb, 0x11, 0x77, 0x06, 0xda, 
0x55, 0xe1, 0xf0, 0xc2, 0xfe, 0xed, 0x40, 0xd6, 0x7f, 0x2a, 0x35, 0x56, 
0x40, 0x16, 0x52, 0x1e, 0xb3, 0xf9, 0xbe, 0x00, 0xed, 0xa1, 0xd3, 0x88, 
0xac, 0x95, 0x4f, 0x82, 0x48, 0x96, 0x62, 0x01, 0x16, 0x9f, 0x81, 0xb9, 
0x4a, 0xfa, 0x06, 0xec, 0xea, 0x59, 0x3b, 0x34, 0x2a, 0x97, 0xc4, 0x86, 
0xda, 0xae, 0x5d, 0x4a, 0x92, 0xea, 0xc3, 0x3c, 0x19, 0xec, 0x9d, 0xa0, 
0xda, 0x3e, 0xcf, 0xe1, 0x50, 0xe0, 0x12, 0x28, 0x15, 0x58, 0x31, 0xfd, 
0x7f, 0x47, 0xe1, 0xe9, 0x34, 0x52, 0xdf, 0x52, 0xfc, 0x55, 0x02, 0x3c, 
0xe7, 0x48, 0x5c, 0x02, 0x57, 0xdc, 0x6f, 0x77, 0xf7, 0x5a, 0xf1, 0xcd, 
0x0a, 0x2e, 0x00, 0xe6, 0xd6, 0xde, 0x35, 0x47, 0xeb, 0x55, 0x6a, 0xd6, 
0x2b, 0x18, 0x6a, 0xfd, 0xea, 0xd0, 0x05, 0x6b, 0x06, 0x4b, 0x46, 0xe9, 
0xed, 0x29, 0x3f, 0x06, 0x41, 0x57, 0xde, 0x7f, 0xa9, 0xe5, 0x5b, 0x4f, 
0xe5, 0x38, 0x11, 0xcb, 0x27, 0x15, 0x1b, 0x32, 0x50, 0xd3, 0x2f, 0xf0, 
0xad, 0x13, 0xf1, 0x16, 0x3e, 0x24, 0xf4, 0x59, 0x57, 0x22, 0x0b, 0x04, 
0xff, 0x0f, 0xc9, 0x04, 0x14, 0x69, 0x2a, 0xf0, 0xb3, 0xe1, 0xfd, 0x3a, 
0x1c, 0x11, 0xde, 0x59, 0x2a, 0x69, 0xbe, 0x8d, 0xe7, 0x18, 0x3f, 0xda, 
0xa9, 0xeb, 0x51, 0x0a, 0xfc, 0x56, 0x9b, 0x27, 0x14, 0xe8, 0x09, 0xbe, 
0x7f, 0x13, 0xd9, 0x03, 0xb6, 0xe5, 0xe2, 0xfa, 0x24, 0xed, 0x82, 0x62, 
0x47, 0xd0, 0x0d, 0x5b, 0xb7, 0xe9, 0xd3, 0x42, 0xe0, 0x59, 0xd6, 0x63, 
0xcf, 0x4f, 0x7f, 0x13, 0x42, 0x2a, 0x33, 0x62, 0xcc, 0x1f, 0x4d, 0x62, 
0x13, 0x73, 0x6d, 0x56, 0x63, 0xf2, 0x5d, 0xfd, 0xe9, 0x60, 0x2d, 0x55, 
0x08, 0x21, 0xf2, 0x21, 0x20, 0x06, 0x2f, 0xd8, 0x1a, 0x6a, 0x67, 0x35, 
0x7d, 0xcc, 0xbe, 0x5a, 0x27, 0x35, 0xeb, 0x7f, 0x4e, 0x2a, 0x57, 0x48, 
0x2e, 0x66, 0x42, 0xcb, 0x5c, 0x5e, 0xb8, 0x7a, 0x17, 0x0e, 0x07, 0x46, 
0xb7, 0xdf, 0xce, 0x25, 0xc8, 0x27, 0x14, 0xb6, 0x11, 0xe2, 0x45, 0x2f, 
0x8b, 0x05, 0x0c, 0xfc, 0x19, 0x7f, 0xdb, 0x10, 0x36, 0xe4, 0x7b, 0xfe, 
0x16, 0x92, 0xaa, 0x85, 0xa3, 0x4f, 0x0c, 0x89, 0x4e, 0xf0, 0xa4, 0x5a, 
0x62, 0x96, 0xcd, 0xd2, 0xa8, 0xe2, 0x41, 0x23, 0xe0, 0x05, 0xe2, 0xbd, 
0x37, 0x29, 0x38, 0x81, 0x35, 0xbd, 0x49, 0xfe, 0xd5, 0xe9, 0x8e, 0xfd, 
0x37, 0x3e, 0x11, 0xd2, 0x14, 0x98, 0x26, 0xd6, 0xac, 0x19, 0x5a, 0xf9, 
0xd8, 0x1d, 0xde, 0x52, 0x51, 0x44, 0x58, 0x08, 0x14, 0xe3, 0x30, 0xd2, 
0x4d, 0x06, 0x64, 0x3b, 0x33, 0xf6, 0xe9, 0x1f, 0xe8, 0xd2, 0x38, 0x7f, 
0xda, 0x5f, 0x64, 0x49, 0x02, 0x1a, 0x17, 0x22, 0x76, 0x1c, 0x58, 0x42, 
0x2a, 0xd7, 0x6a, 0x72, 0xf6, 0x34, 0xda, 0x2a, 0x40, 0x49, 0x26, 0x55, 
0xb0, 0x6a, 0xcd, 0xb9, 0x81, 0xad, 0xf7, 0xac, 0xd4, 0x1c, 0xe8, 0x44, 
0xbc, 0x4f, 0xe3, 0x97, 0xa8, 0x91, 0x14, 0x49, 0xe9, 0x2e, 0x31, 0xfc, 
0x30, 0xf7, 0xf5, 0x27, 0xab, 0x56, 0x10, 0x9c, 0xb9, 0xa4, 0xa3, 0xe9, 
0x57, 0xff, 0x60, 0xca, 0xaa, 0x50, 0x0a, 0x91, 0xe4, 0xbd, 0x5b, 0xd2, 
0xf8, 0xfb, 0x67, 0x68, 0xf3, 0x5c, 0xf4, 0x08, 0x2d, 0xf0, 0xd8, 0x2b, 
0x01, 0x71, 0x35, 0x69, 0xec, 0x52, 0x35, 0xe3, 0xfa, 0xe3, 0x2b, 0x02, 
0x36, 0x3d, 0x06, 0x2a, 0x7f, 0x74, 0x50, 0xdd, 0x75, 0x18, 0x35, 0x33, 
0x41, 0x41, 0x25, 0xd4, 0xe3, 0x12, 0x53, 0xf2, 0xdb, 0x37, 0x04, 0x09, 
0x34, 0x33, 0x54, 0x61, 0xda, 0xec, 0x09, 0x7f, 0x29, 0xe8, 0x69, 0x63, 
0x42, 0xdd, 0x49, 0x14, 0x21, 0x00, 0xfb, 0xea, 0x97, 0x2c, 0x6d, 0x5e, 
0x1d, 0x56, 0x41, 0xd5, 0xcf, 0xfb, 0x4e, 0x24, 0x26, 0xe3, 0x4d, 0x6d, 
0xb2, 0x24, 0xfe, 0x3f, 0x55, 0x35, 0x5e, 0xe1, 0x0c, 0x04, 0x0b, 0x0f, 
0x66, 0xf7, 0xff, 0xff, 0x04, 0x00, 0x00, 0x00, 0x0c, 0x00, 0x00, 0x00, 
0xff, 0xff, 0xff, 0xff, 0x80, 0x00, 0x00, 0x00, 0x10, 0x00, 0x00, 0x00, 
0x7e, 0xf7, 0xff, 0xff, 0x04, 0x00, 0x00, 0x00, 0x0c, 0x00, 0x00, 0x00, 
0xff, 0xff, 0xff, 0xff, 0x40, 0x00, 0x00, 0x00, 0x10, 0x00, 0x00, 0x00, 
0x96, 0xf7, 0xff, 0xff, 0x04, 0x00, 0x00, 0x00, 0x0c, 0x00, 0x00, 0x00, 
0xff, 0xff, 0xff, 0xff, 0x40, 0x00, 0x00, 0x00, 0x20, 0x00, 0x00, 0x00, 
0xae, 0xf7, 0xff, 0xff, 0x04, 0x00, 0x00, 0x00, 0x10, 0x00, 0x00, 0x00, 
0x34, 0x5d, 0xe1, 0x3c, 0x5b, 0xea, 0xad, 0x3d, 0x9d, 0x02, 0x8f, 0xbd, 
0x17, 0xfd, 0x60, 0xbd, 0xca, 0xf7, 0xff, 0xff, 0x04, 0x00, 0x00, 0x00, 
0x40, 0x00, 0x00, 0x00, 0xa1, 0xb5, 0x70, 0x3d, 0x21, 0x88, 0x80, 0x3d, 
0x84, 0xc3, 0xd7, 0x3c, 0x6f, 0xec, 0x48, 0x3d, 0x56, 0x24, 0xae, 0x3d, 
0x59, 0xa5, 0xcf, 0x3c, 0x60, 0x2a, 0x82, 0x3d, 0xdb, 0x64, 0xf3, 0x3d, 
0x6d, 0x5a, 0x87, 0xbb, 0x23, 0x47, 0xf8, 0x3d, 0xf4, 0xc6, 0x34, 0x3d, 
0xa4, 0x3a, 0x9e, 0x3d, 0x68, 0x9c, 0x01, 0x3d, 0xcb, 0x67, 0xac, 0x3d, 
0x3c, 0xd0, 0x6d, 0x3d, 0xf6, 0x4d, 0xb1, 0x3d, 0x16, 0xf8, 0xff, 0xff, 
0x04, 0x00, 0x00, 0x00, 0x80, 0x00, 0x00, 0x00, 0x4e, 0x9e, 0xc8, 0x3d, 
0x82, 0x09, 0x08, 0x3d, 0x0f, 0x23, 0x9f, 0x3d, 0xee, 0x07, 0xd7, 0xbc, 
0xa1, 0x91, 0x84, 0x3d, 0x19, 0x18, 0xae, 0x3d, 0x84, 0xa6, 0x89, 0x3d, 
0xd2, 0xc2, 0xad, 0xbc, 0x50, 0x55, 0xba, 0x3d, 0x33, 0x77, 0x56, 0x3d, 
0x29, 0xc2, 0xd7, 0xbc, 0xc5, 0x8b, 0x1a, 0xbd, 0xa6, 0x29, 0xf3, 0xbc, 
0xd0, 0x45, 0x56, 0x3b, 0x21, 0x84, 0xc8, 0xbc, 0xde, 0xc7, 0xa5, 0xbc, 
0x58, 0xf0, 0x67, 0xbd, 0x00, 0x00, 0x00, 0x00, 0x57, 0x7c, 0x96, 0xbc, 
0x91, 0x0b, 0x11, 0xbd, 0x18, 0x7e, 0xa4, 0x3d, 0xb6, 0x93, 0xd5, 0xbc, 
0x61, 0x5f, 0xb0, 0x3d, 0xc6, 0x43, 0x13, 0xbd, 0x27, 0x76, 0xc2, 0x3d, 
0x25, 0xc8, 0x40, 0x3d, 0x90, 0xa1, 0xb4, 0xbb, 0xa2, 0x8e, 0x86, 0xbc, 
0x19, 0xd4, 0x4e, 0x3d, 0xad, 0xbc, 0xbf, 0xbc, 0x77, 0x22, 0xc6, 0x3d, 
0xb5, 0xea, 0x9f, 0xbc, 0xa2, 0xf8, 0xff, 0xff, 0x04, 0x00, 0x00, 0x00, 
0x80, 0x04, 0x00, 0x00, 0xf3, 0x5c, 0xd3, 0x3d, 0x74, 0x93, 0xfe, 0xbd, 
0x36, 0x71, 0xb1, 0x3d, 0x69, 0x2f, 0xcc, 0xbd, 0xbd, 0x7d, 0xd7, 0x3d, 
0xab, 0xe9, 0xfd, 0x3c, 0xfb, 0x07, 0xe4, 0x3c, 0xd5, 0x38, 0x94, 0xbe, 
0x66, 0x19, 0x92, 0xbe, 0xf6, 0x8c, 0xfa, 0x3d, 0xc4, 0xdb, 0x99, 0x3e, 
0xa1, 0xe6, 0x28, 0xbe, 0x2c, 0x5e, 0x73, 0x3d, 0x83, 0x2e, 0xbc, 0xbe, 
0xd5, 0x0e, 0x54, 0x3e, 0x6c, 0xf5, 0x96, 0xbe, 0xf2, 0x61, 0x93, 0x3e, 
0x3e, 0x76, 0x00, 0xbe, 0x28, 0xbd, 0x82, 0x3e, 0x6b, 0xbb, 0x16, 0xbd, 
0x4a, 0xf8, 0x84, 0xbe, 0x40, 0xbd, 0x6b, 0x3e, 0x8b, 0x6e, 0x0d, 0x3e, 
0x5c, 0x0f, 0xc0, 0x3e, 0x12, 0xf6, 0x94, 0x3e, 0xf5, 0xdd, 0x67, 0x3d, 
0x75, 0x21, 0x1a, 0x3e, 0xe9, 0x44, 0xbc, 0xbd, 0xc1, 0x24, 0xf5, 0x3c, 
0x4a, 0x1e, 0xbc, 0x3e, 0xc8, 0x90, 0x4b, 0xbe, 0x1c, 0xb0, 0xb4, 0xbe, 
0x15, 0x68, 0x78, 0xbd, 0x77, 0xbc, 0x97, 0x3d, 0x16, 0x60, 0x41, 0xbc, 
0x44, 0x13, 0x95, 0x3e, 0x09, 0xd2, 0xd2, 0xbd, 0x7e, 0x64, 0x7c, 0x3e, 
0x75, 0x21, 0xa7, 0x3e, 0xc6, 0x0e, 0xe3, 0xbd, 0xda, 0x10, 0x73, 0xbd, 
0x89, 0xc4, 0x9c, 0xbe, 0x37, 0x29, 0x93, 0xbc, 0x54, 0x16, 0x9c, 0x3e, 
0xda, 0xc8, 0x83, 0xbd, 0x5a, 0x08, 0xaa, 0xbd, 0x39, 0x43, 0xb8, 0xbd, 
0xcc, 0x0b, 0x6f, 0xbe, 0xbd, 0x76, 0x6c, 0xbe, 0x08, 0x28, 0x8a, 0x3e, 
0x81, 0xc2, 0xa5, 0x3d, 0xd1, 0xcf, 0x8e, 0x3e, 0xb3, 0x2a, 0x79, 0xbe, 
0xbc, 0x6f, 0x3d, 0xbe, 0xfd, 0x5e, 0x82, 0xbe, 0xfe, 0x2b, 0x91, 0x3e, 
0x3f, 0x79, 0xfb, 0x3c, 0x9e, 0x85, 0xd4, 0x3e, 0xc7, 0x81, 0x73, 0xbe, 
0x68, 0xc8, 0x9d, 0x3d, 0x9b, 0x81, 0x23, 0xbe, 0x11, 0x89, 0x05, 0x3e, 
0xd5, 0xe7, 0xbb, 0xbd, 0x01, 0x53, 0x43, 0xbd, 0x40, 0xd2, 0x91, 0x3d, 
0xf5, 0xe2, 0x5f, 0xbd, 0x41, 0x04, 0x27, 0x3e, 0x75, 0xa1, 0x39, 0xbd, 
0x36, 0x83, 0xa6, 0x3e, 0x34, 0xc2, 0xc1, 0xbd, 0x18, 0xa6, 0x43, 0xbe, 
0x45, 0x52, 0xc0, 0xbd, 0x5e, 0x57, 0x57, 0x3b, 0xf6, 0xaa, 0xba, 0x3e, 
0x99, 0x9b, 0xa5, 0xbe, 0x78, 0xb4, 0xfd, 0x3d, 0xb9, 0x6f, 0x21, 0x3e, 
0x19, 0x9e, 0x66, 0xbe, 0xf5, 0x15, 0x2b, 0x3e, 0x3e, 0x68, 0xdd, 0x3e, 
0x14, 0x2c, 0x12, 0x3e, 0xf2, 0x3d, 0x03, 0xbe, 0xb0, 0xf2, 0xa7, 0x3c, 
0xc9, 0x5d, 0x57, 0x3e, 0x53, 0x49, 0xf3, 0x3d, 0x0f, 0x58, 0x9f, 0xbd, 
0x92, 0x12, 0x5f, 0xbe, 0x37, 0x3d, 0x96, 0x3c, 0xd2, 0x55, 0x37, 0xbe, 
0xc1, 0x6b, 0xb1, 0xbd, 0x05, 0xff, 0x86, 0x3e, 0xdf, 0xa7, 0xd9, 0xbc, 
0x77, 0x21, 0x24, 0xbe, 0xdf, 0xe1, 0x0d, 0xbe, 0x0b, 0x58, 0x40, 0x3e, 
0xfd, 0x0f, 0x2f, 0x3e, 0x33, 0x9f, 0x51, 0x3d, 0x8a, 0x79, 0x32, 0xbd, 
0x6e, 0x37, 0x67, 0xbe, 0x59, 0x50, 0x9a, 0xbe, 0xf6, 0xf6, 0xb4, 0xbe, 
0x61, 0x8e, 0x86, 0xbe, 0x20, 0x0d, 0x30, 0x3e, 0x7d, 0x2a, 0x8e, 0x3e, 
0x6c, 0x3d, 0x0a, 0x3e, 0xb4, 0x91, 0x14, 0xbe, 0xab, 0xd2, 0x8e, 0xbe, 
0x09, 0x75, 0x52, 0x3e, 0x55, 0x45, 0x41, 0x3e, 0x26, 0x4f, 0x89, 0xbe, 
0x83, 0xdd, 0x96, 0xbd, 0x5c, 0x0c, 0x02, 0x3e, 0x8f, 0x4f, 0x2d, 0xbe, 
0x93, 0x7e, 0x83, 0xbe, 0xa8, 0x8b, 0x4c, 0xbe, 0x65, 0x4d, 0x89, 0xbc, 
0x4a, 0xe2, 0x4f, 0x3e, 0x9d, 0x74, 0x1c, 0x3e, 0xe7, 0x9a, 0xfd, 0xbd, 
0x65, 0x48, 0x00, 0x3e, 0xa9, 0x78, 0xac, 0x3e, 0xa2, 0xda, 0xb2, 0xbe, 
0x40, 0x57, 0x15, 0x3d, 0x99, 0xa7, 0x27, 0xbe, 0xe4, 0xcb, 0xad, 0xbd, 
0x85, 0x92, 0x0a, 0xbe, 0x7c, 0xe3, 0x99, 0xbe, 0x8d, 0x9e, 0x78, 0xbe, 
0x13, 0x06, 0x3f, 0xbc, 0xd1, 0xc8, 0x91, 0xbe, 0xb4, 0x80, 0x88, 0x3e, 
0x26, 0x0a, 0x65, 0xbd, 0xcc, 0xad, 0xc8, 0xbe, 0xe1, 0x34, 0x2c, 0x3d, 
0x57, 0xe5, 0x51, 0x3d, 0x42, 0x47, 0x8e, 0xbd, 0x47, 0xc0, 0x53, 0xbe, 
0x56, 0xdc, 0x46, 0x3e, 0x37, 0x3a, 0x9c, 0xbe, 0x53, 0x47, 0x5d, 0x3d, 
0x98, 0xf0, 0x87, 0xbe, 0x85, 0xa6, 0x83, 0xbe, 0xe1, 0x17, 0x8c, 0xbd, 
0xc8, 0x2e, 0x21, 0xbe, 0x07, 0xc1, 0xd0, 0xbd, 0x44, 0xba, 0xb2, 0xbd, 
0xa9, 0x7e, 0x21, 0xbe, 0x17, 0xef, 0x29, 0xbe, 0xd8, 0xc8, 0x39, 0xbe, 
0x79, 0x0c, 0x91, 0xbe, 0x92, 0x22, 0x68, 0xbe, 0x65, 0x6e, 0x1b, 0x3e, 
0x30, 0x2e, 0x36, 0x3e, 0xf2, 0x69, 0x8d, 0x3e, 0x1f, 0x1d, 0x64, 0x3e, 
0x3d, 0x94, 0x8b, 0xbd, 0x91, 0x4d, 0x21, 0x3e, 0x91, 0x50, 0x52, 0x3e, 
0x92, 0x0a, 0xf9, 0xbd, 0x62, 0x83, 0x66, 0xbe, 0x92, 0x51, 0x62, 0xbe, 
0x0e, 0xd8, 0x36, 0xbe, 0x3e, 0x0d, 0x75, 0x3d, 0x7a, 0x91, 0xcd, 0xbe, 
0x04, 0x90, 0xfc, 0xbd, 0x61, 0x2e, 0x88, 0xbe, 0xd8, 0xb3, 0xc9, 0xbd, 
0xe8, 0xa3, 0xfe, 0x3c, 0x2f, 0x5f, 0xc6, 0xbd, 0x32, 0xe7, 0x04, 0x3e, 
0x55, 0x57, 0xb0, 0xbe, 0xc7, 0x45, 0x90, 0x3c, 0x4b, 0x8a, 0xa4, 0x3e, 
0xa5, 0x95, 0x52, 0xbe, 0xd6, 0x5f, 0x20, 0xbe, 0x89, 0x9e, 0xb9, 0xbe, 
0x80, 0x19, 0xc2, 0xbd, 0xb6, 0x5b, 0x7e, 0xbe, 0x4b, 0x61, 0x3c, 0x3e, 
0xf1, 0x24, 0x6a, 0x3e, 0x86, 0xf8, 0x83, 0xbd, 0x55, 0x42, 0x62, 0xbe, 
0xd9, 0xac, 0xf2, 0x3d, 0xba, 0x84, 0xde, 0x3b, 0x41, 0x34, 0x84, 0xbc, 
0xf7, 0xf8, 0xbb, 0x3e, 0x70, 0xad, 0x65, 0x3e, 0xbe, 0x4d, 0x5e, 0xbe, 
0x06, 0xc8, 0xb8, 0xbd, 0x4b, 0xe4, 0xec, 0xbd, 0x7a, 0xc8, 0xb0, 0x3e, 
0x2e, 0xfe, 0x95, 0x3e, 0xb4, 0xde, 0x3c, 0x3e, 0x3e, 0x86, 0x7e, 0xbe, 
0xf3, 0x95, 0x5d, 0x3e, 0xe3, 0xf3, 0xd0, 0xbd, 0xe2, 0xfb, 0xd8, 0xbb, 
0x87, 0x63, 0xb6, 0x3e, 0x52, 0x29, 0x97, 0x3e, 0xc9, 0x3f, 0x8e, 0xbd, 
0x35, 0x0d, 0x55, 0x3d, 0x87, 0x12, 0xa0, 0xbc, 0x91, 0x60, 0x74, 0x3d, 
0xc0, 0x2b, 0xfb, 0xbd, 0x10, 0x3f, 0x05, 0x3e, 0xcc, 0xcd, 0xb0, 0xbe, 
0xf9, 0xef, 0xa9, 0xbe, 0x79, 0x9f, 0x1c, 0xbd, 0x4c, 0xd5, 0xa5, 0xbd, 
0xc0, 0xf0, 0x87, 0x3c, 0x1b, 0xc3, 0x4a, 0x3e, 0x50, 0xcd, 0xb5, 0xbe, 
0x28, 0x72, 0x0c, 0x3e, 0xa5, 0xad, 0x8e, 0x3e, 0x64, 0x08, 0xb7, 0xbd, 
0x3a, 0x7f, 0x88, 0xbc, 0xed, 0x95, 0x5c, 0x3e, 0x0d, 0x28, 0xb5, 0xbc, 
0xe3, 0x09, 0x15, 0x3e, 0xcf, 0x3d, 0x67, 0xbe, 0x1d, 0xe2, 0xd5, 0xbd, 
0x8c, 0xba, 0xcd, 0x3e, 0x9b, 0x40, 0x33, 0x3e, 0xbb, 0xe1, 0xab, 0xbe, 
0xba, 0xa6, 0x1c, 0x3d, 0x16, 0xa3, 0x1a, 0xbe, 0x66, 0x38, 0xe9, 0xbb, 
0x38, 0x3e, 0xc6, 0x3d, 0xc6, 0x2a, 0x93, 0xbd, 0x53, 0xa0, 0x2e, 0xbe, 
0xcc, 0x76, 0x65, 0xbe, 0xab, 0x9e, 0x34, 0x3d, 0xd3, 0xeb, 0x9d, 0x3d, 
0xe7, 0x66, 0x24, 0xbd, 0x76, 0xea, 0x99, 0x3e, 0xb7, 0x17, 0x7a, 0x3d, 
0x72, 0x43, 0x2a, 0x3e, 0x69, 0x02, 0x16, 0x3c, 0x16, 0xca, 0xb9, 0x3e, 
0x9d, 0xa1, 0x7e, 0x3d, 0x45, 0xe5, 0x1e, 0x3b, 0xc2, 0x86, 0xbf, 0xbe, 
0x4d, 0x85, 0x37, 0xbe, 0x69, 0xfc, 0x8b, 0xbe, 0xcb, 0xf2, 0x2e, 0x3e, 
0x79, 0x38, 0x28, 0xbe, 0xd5, 0x2b, 0x90, 0x3d, 0x8f, 0x8f, 0xd6, 0xbd, 
0xb0, 0xdc, 0x2d, 0xbe, 0x53, 0xc6, 0xae, 0xbe, 0x9d, 0x33, 0xf9, 0x3d, 
0x80, 0xa1, 0x5a, 0xbe, 0x03, 0xd8, 0x05, 0xbe, 0x54, 0x8c, 0xe1, 0x3d, 
0x40, 0x65, 0xd1, 0x3d, 0x24, 0x38, 0x49, 0x3e, 0xd0, 0x15, 0xee, 0x3d, 
0x11, 0xc6, 0x28, 0xbe, 0x41, 0x08, 0x81, 0x3d, 0xa6, 0x46, 0x5d, 0x3e, 
0x46, 0xec, 0x23, 0x3e, 0xe6, 0xb1, 0x49, 0x3e, 0x86, 0x18, 0x08, 0xbe, 
0xc0, 0x48, 0x03, 0x3e, 0xd2, 0x15, 0x2f, 0xbe, 0xa8, 0xa2, 0xde, 0x3b, 
0xbc, 0x55, 0x2e, 0x3e, 0x13, 0xf9, 0x17, 0x3e, 0x0f, 0x28, 0xc0, 0xbd, 
0xa2, 0x7f, 0x9d, 0xbe, 0x87, 0x76, 0xeb, 0xbd, 0x4e, 0x6b, 0x26, 0xbe, 
0xb1, 0x72, 0xab, 0x3b, 0xd7, 0x81, 0xc9, 0xbc, 0x43, 0x15, 0x17, 0x3d, 
0x0d, 0x71, 0x4b, 0x3e, 0x27, 0xb1, 0x92, 0x3e, 0x5c, 0x0d, 0x40, 0xbe, 
0x45, 0x9e, 0x32, 0x3e, 0xfc, 0x5e, 0xdb, 0x3c, 0x43, 0xb5, 0x8c, 0xbc, 
0x96, 0x64, 0x21, 0x3d, 0x58, 0x8a, 0xbb, 0x3e, 0x4d, 0x1e, 0x00, 0xbc, 
0x3a, 0xc3, 0x05, 0x3e, 0x82, 0xd6, 0x35, 0xbe, 0x79, 0x5d, 0xe8, 0x3c, 
0x27, 0x1e, 0xeb, 0x3d, 0x2e, 0xfd, 0xff, 0xff, 0x04, 0x00, 0x00, 0x00, 
0x00, 0x02, 0x00, 0x00, 0x27, 0xd9, 0xd6, 0xbd, 0xc0, 0x94, 0xef, 0x3d, 
0xca, 0x9b, 0x29, 0x3e, 0xcb, 0x09, 0x98, 0xbe, 0xe5, 0x74, 0xbb, 0x3e, 
0x36, 0xb8, 0x7a, 0x3e, 0x9d, 0xf8, 0x44, 0x3e, 0x43, 0xe0, 0xa5, 0xbe, 
0xdd, 0xae, 0x14, 0x3e, 0xec, 0x6f, 0xa1, 0x3e, 0x2f, 0x5a, 0xb6, 0xbe, 
0xea, 0x42, 0x0c, 0xbd, 0xd8, 0xd4, 0x72, 0xbd, 0x61, 0xd6, 0xeb, 0x3e, 
0xd0, 0x4c, 0x22, 0xbe, 0x93, 0x30, 0xfb, 0xbd, 0x43, 0x55, 0x02, 0xbe, 
0x6c, 0x6f, 0x0d, 0x3e, 0xe0, 0xc3, 0xa8, 0xbd, 0x84, 0xff, 0x90, 0xbe, 
0x47, 0xa8, 0x9a, 0x3e, 0xec, 0x42, 0x44, 0xbd, 0xf7, 0xee, 0x41, 0x3e, 
0x33, 0x4f, 0xb5, 0x3e, 0xcb, 0x9f, 0x8c, 0xbe, 0xc2, 0xd2, 0x54, 0x3d, 
0xf3, 0x1b, 0x36, 0x3e, 0x28, 0x39, 0x6e, 0xbe, 0x18, 0x6a, 0xe4, 0x3e, 
0x2c, 0xf6, 0x94, 0xbe, 0x58, 0x31, 0x85, 0xbd, 0xdc, 0xe7, 0xb9, 0x3e, 
0x6e, 0x66, 0xbf, 0xbd, 0x5d, 0x07, 0x45, 0xbe, 0x8e, 0x8a, 0x6a, 0x3e, 
0x39, 0x85, 0x1f, 0x3c, 0x07, 0x8c, 0xd7, 0x3e, 0xd8, 0x6d, 0xb8, 0x3e, 
0x59, 0x6c, 0x11, 0x3d, 0x70, 0x5b, 0x9b, 0xbe, 0xa4, 0x79, 0x30, 0x3e, 
0xcb, 0xcb, 0x7b, 0x3e, 0x2b, 0xc0, 0xa6, 0xbe, 0xbc, 0xf6, 0xc6, 0xbe, 
0x7f, 0x38, 0x0d, 0xbc, 0xba, 0x2c, 0xd5, 0xbe, 0x1e, 0xe7, 0x39, 0xbe, 
0xe3, 0x92, 0x81, 0xbe, 0xf1, 0x90, 0xd7, 0xbe, 0xb8, 0x77, 0xa6, 0xbd, 
0x86, 0xe8, 0xc9, 0xbe, 0xa6, 0x65, 0x93, 0xbe, 0xcc, 0x3e, 0xf7, 0x3e, 
0xbe, 0xeb, 0xa2, 0x3c, 0xab, 0x7c, 0x64, 0x3e, 0x2f, 0xb3, 0xf7, 0xbe, 
0x61, 0xb8, 0x2b, 0x3e, 0x23, 0xbc, 0x72, 0xbe, 0x84, 0xd2, 0x00, 0xbe, 
0xee, 0x65, 0x6d, 0xbe, 0x80, 0xa7, 0x87, 0x3d, 0xda, 0x9e, 0xb8, 0x3e, 
0x45, 0xd5, 0x90, 0x3c, 0x1e, 0x6b, 0xf0, 0xbe, 0xd3, 0xb1, 0xf3, 0xbe, 
0x29, 0xf3, 0xcf, 0xbe, 0x34, 0x85, 0xd9, 0x3d, 0xff, 0x45, 0xdc, 0xbc, 
0x7d, 0x5b, 0x0c, 0x3e, 0xbc, 0x9a, 0x67, 0xbe, 0x6a, 0x88, 0xd2, 0xbe, 
0x73, 0xcf, 0xc4, 0x3e, 0x57, 0x43, 0x96, 0xbd, 0x47, 0xc8, 0x6d, 0x3e, 
0x8e, 0x13, 0x3c, 0xbe, 0x19, 0xf0, 0x0c, 0xbe, 0x1c, 0x9e, 0x97, 0xbd, 
0x17, 0xb3, 0xd5, 0xbd, 0x55, 0x30, 0x6b, 0x3e, 0x36, 0x04, 0xae, 0x3e, 
0xfc, 0x8f, 0xb7, 0xbe, 0xa0, 0x9c, 0xc1, 0x3c, 0x59, 0xf2, 0x3e, 0x3d, 
0xe0, 0x76, 0xde, 0x3d, 0xd7, 0xa3, 0x80, 0x3e, 0x5e, 0xad, 0x94, 0xbd, 
0xe2, 0x81, 0x5d, 0xbe, 0xa5, 0x38, 0x5a, 0x3e, 0x03, 0x40, 0xf8, 0xbe, 
0xde, 0x17, 0xf1, 0xbe, 0x00, 0x42, 0x31, 0x3d, 0xbf, 0xfb, 0xc3, 0xbe, 
0x38, 0x2e, 0x8e, 0xbe, 0x04, 0x25, 0x31, 0x3e, 0x2d, 0x75, 0xfd, 0xbe, 
0xa2, 0x2d, 0xad, 0x3d, 0x6e, 0xbe, 0x26, 0xbe, 0x65, 0x97, 0xdd, 0xbd, 
0x9e, 0x2e, 0x7b, 0xbe, 0x20, 0x82, 0x28, 0x3c, 0xa4, 0xf9, 0xfc, 0xbe, 
0x67, 0x63, 0x04, 0xbf, 0xab, 0xcc, 0x38, 0xbe, 0xa0, 0x3d, 0x84, 0xbe, 
0x84, 0x8b, 0x9e, 0xbd, 0xfc, 0xa1, 0xdc, 0xbe, 0xcc, 0x19, 0xea, 0xbc, 
0xb9, 0x7d, 0xf2, 0xbe, 0xa7, 0x7c, 0xbd, 0x3e, 0xa2, 0xbd, 0xe0, 0xbd, 
0xaf, 0x40, 0x35, 0x3e, 0x5a, 0x60, 0x4a, 0x3e, 0xe5, 0x8c, 0x68, 0xbe, 
0xe3, 0x10, 0x65, 0xbe, 0xa4, 0x88, 0x01, 0x3e, 0xd9, 0x80, 0x9b, 0xbd, 
0xd7, 0x9b, 0x3d, 0xbe, 0xff, 0x09, 0x81, 0x3d, 0x27, 0xbd, 0xcf, 0xbe, 
0x14, 0xa7, 0x33, 0x3e, 0x1c, 0x79, 0xca, 0xbe, 0x09, 0x7e, 0xf3, 0xbe, 
0x7d, 0x78, 0xd4, 0xbe, 0x4d, 0xd0, 0x86, 0xbd, 0xdb, 0x34, 0xf6, 0xbe, 
0x10, 0x74, 0x2e, 0x3e, 0x21, 0x3a, 0x9f, 0xbe, 0x58, 0x66, 0xf7, 0xbd, 
0x3a, 0xff, 0xff, 0xff, 0x04, 0x00, 0x00, 0x00, 0x04, 0x00, 0x00, 0x00, 
0x01, 0x00, 0x00, 0x00, 0x4a, 0xff, 0xff, 0xff, 0x04, 0x00, 0x00, 0x00, 
0x04, 0x00, 0x00, 0x00, 0xfd, 0xff, 0xff, 0xff, 0xc8, 0xee, 0xff, 0xff, 
0xcc, 0xee, 0xff, 0xff, 0x0f, 0x00, 0x00, 0x00, 0x4d, 0x4c, 0x49, 0x52, 
0x20, 0x43, 0x6f, 0x6e, 0x76, 0x65, 0x72, 0x74, 0x65, 0x64, 0x2e, 0x00, 
0x01, 0x00, 0x00, 0x00, 0x14, 0x00, 0x00, 0x00, 0x00, 0x00, 0x0e, 0x00, 
0x18, 0x00, 0x14, 0x00, 0x10, 0x00, 0x0c, 0x00, 0x08, 0x00, 0x04, 0x00, 
0x0e, 0x00, 0x00, 0x00, 0x14, 0x00, 0x00, 0x00, 0x1c, 0x00, 0x00, 0x00, 
0xf0, 0x02, 0x00, 0x00, 0xf4, 0x02, 0x00, 0x00, 0xf8, 0x02, 0x00, 0x00, 
0x04, 0x00, 0x00, 0x00, 0x6d, 0x61, 0x69, 0x6e, 0x00, 0x00, 0x00, 0x00, 
0x0c, 0x00, 0x00, 0x00, 0xa8, 0x02, 0x00, 0x00, 0x48, 0x02, 0x00, 0x00, 
0x10, 0x02, 0x00, 0x00, 0xd4, 0x01, 0x00, 0x00, 0x80, 0x01, 0x00, 0x00, 
0x48, 0x01, 0x00, 0x00, 0x18, 0x01, 0x00, 0x00, 0xd4, 0x00, 0x00, 0x00, 
0xac, 0x00, 0x00, 0x00, 0x78, 0x00, 0x00, 0x00, 0x40, 0x00, 0x00, 0x00, 
0x04, 0x00, 0x00, 0x00, 0xae, 0xfe, 0xff, 0xff, 0x1c, 0x00, 0x00, 0x00, 
0x00, 0x00, 0x00, 0x09, 0x1c, 0x00, 0x00, 0x00, 0x20, 0x00, 0x00, 0x00, 
0x06, 0x00, 0x00, 0x00, 0x00, 0x00, 0x06, 0x00, 0x08, 0x00, 0x04, 0x00, 
0x06, 0x00, 0x00, 0x00, 0x00, 0x00, 0x80, 0x3f, 0x01, 0x00, 0x00, 0x00, 
0x17, 0x00, 0x00, 0x00, 0x01, 0x00, 0x00, 0x00, 0x16, 0x00, 0x00, 0x00, 
0x2a, 0xfe, 0xff, 0xff, 0x14, 0x00, 0x00, 0x00, 0x00, 0x00, 0x00, 0x08, 
0x10, 0x00, 0x00, 0x00, 0x14, 0x00, 0x00, 0x00, 0x05, 0x00, 0x00, 0x00, 
0xa4, 0xef, 0xff, 0xff, 0x01, 0x00, 0x00, 0x00, 0x16, 0x00, 0x00, 0x00, 
0x03, 0x00, 0x00, 0x00, 0x15, 0x00, 0x00, 0x00, 0x03, 0x00, 0x00, 0x00, 
0x07, 0x00, 0x00, 0x00, 0x5e, 0xfe, 0xff, 0xff, 0x14, 0x00, 0x00, 0x00, 
0x00, 0x00, 0x00, 0x1b, 0x10, 0x00, 0x00, 0x00, 0x14, 0x00, 0x00, 0x00, 
0x04, 0x00, 0x00, 0x00, 0xd8, 0xef, 0xff, 0xff, 0x01, 0x00, 0x00, 0x00, 
0x15, 0x00, 0x00, 0x00, 0x02, 0x00, 0x00, 0x00, 0x14, 0x00, 0x00, 0x00, 
0x02, 0x00, 0x00, 0x00, 0xbe, 0xfe, 0xff, 0xff, 0x0c, 0x00, 0x00, 0x00, 
0x10, 0x00, 0x00, 0x00, 0x02, 0x00, 0x00, 0x00, 0x01, 0x00, 0x00, 0x00, 
0x14, 0x00, 0x00, 0x00, 0x02, 0x00, 0x00, 0x00, 0x13, 0x00, 0x00, 0x00, 
0x08, 0x00, 0x00, 0x00, 0xb2, 0xfe, 0xff, 0xff, 0x14, 0x00, 0x00, 0x00, 
0x00, 0x00, 0x00, 0x01, 0x1c, 0x00, 0x00, 0x00, 0x20, 0x00, 0x00, 0x00, 
0x01, 0x00, 0x00, 0x00, 0xa4, 0xfe, 0xff, 0xff, 0x00, 0x00, 0x00, 0x01, 
0x01, 0x00, 0x00, 0x00, 0x01, 0x00, 0x00, 0x00, 0x01, 0x00, 0x00, 0x00, 
0x13, 0x00, 0x00, 0x00, 0x03, 0x00, 0x00, 0x00, 0x12, 0x00, 0x00, 0x00, 
0x0b, 0x00, 0x00, 0x00, 0x05, 0x00, 0x00, 0x00, 0x96, 0xfe, 0xff, 0xff, 
0x10, 0x00, 0x00, 0x00, 0x00, 0x00, 0x00, 0x34, 0x0c, 0x00, 0x00, 0x00, 
0x10, 0x00, 0x00, 0x00, 0x68, 0xf0, 0xff, 0xff, 0x01, 0x00, 0x00, 0x00, 
0x12, 0x00, 0x00, 0x00, 0x02, 0x00, 0x00, 0x00, 0x11, 0x00, 0x00, 0x00, 
0x01, 0x00, 0x00, 0x00, 0x4e, 0xff, 0xff, 0xff, 0x0c, 0x00, 0x00, 0x00, 
0x10, 0x00, 0x00, 0x00, 0x02, 0x00, 0x00, 0x00, 0x01, 0x00, 0x00, 0x00, 
0x11, 0x00, 0x00, 0x00, 0x02, 0x00, 0x00, 0x00, 0x10, 0x00, 0x00, 0x00, 
0x09, 0x00, 0x00, 0x00, 0x00, 0x00, 0x0e, 0x00, 0x1a, 0x00, 0x14, 0x00, 
0x10, 0x00, 0x0c, 0x00, 0x0b, 0x00, 0x04, 0x00, 0x0e, 0x00, 0x00, 0x00, 
0x24, 0x00, 0x00, 0x00, 0x00, 0x00, 0x00, 0x05, 0x34, 0x00, 0x00, 0x00, 
0x38, 0x00, 0x00, 0x00, 0x03, 0x00, 0x00, 0x00, 0x00, 0x00, 0x0e, 0x00, 
0x18, 0x00, 0x17, 0x00, 0x10, 0x00, 0x0c, 0x00, 0x08, 0x00, 0x04, 0x00, 
0x0e, 0x00, 0x00, 0x00, 0x01, 0x00, 0x00, 0x00, 0x02, 0x00, 0x00, 0x00, 
0x01, 0x00, 0x00, 0x00, 0x02, 0x00, 0x00, 0x00, 0x00, 0x00, 0x00, 0x01, 
0x01, 0x00, 0x00, 0x00, 0x10, 0x00, 0x00, 0x00, 0x01, 0x00, 0x00, 0x00, 
0x0f, 0x00, 0x00, 0x00, 0x46, 0xff, 0xff, 0xff, 0x10, 0x00, 0x00, 0x00, 
0x00, 0x00, 0x00, 0x34, 0x0c, 0x00, 0x00, 0x00, 0x10, 0x00, 0x00, 0x00, 
0x18, 0xf1, 0xff, 0xff, 0x01, 0x00, 0x00, 0x00, 0x0f, 0x00, 0x00, 0x00, 
0x02, 0x00, 0x00, 0x00, 0x0e, 0x00, 0x00, 0x00, 0x02, 0x00, 0x00, 0x00, 
0x00, 0x00, 0x0a, 0x00, 0x10, 0x00, 0x0c, 0x00, 0x08, 0x00, 0x04, 0x00, 
0x0a, 0x00, 0x00, 0x00, 0x0c, 0x00, 0x00, 0x00, 0x10, 0x00, 0x00, 0x00, 
0x02, 0x00, 0x00, 0x00, 0x01, 0x00, 0x00, 0x00, 0x0e, 0x00, 0x00, 0x00, 
0x02, 0x00, 0x00, 0x00, 0x0d, 0x00, 0x00, 0x00, 0x0a, 0x00, 0x00, 0x00, 
0x00, 0x00, 0x0e, 0x00, 0x18, 0x00, 0x14, 0x00, 0x10, 0x00, 0x0c, 0x00, 
0x0b, 0x00, 0x04, 0x00, 0x0e, 0x00, 0x00, 0x00, 0x20, 0x00, 0x00, 0x00, 
0x00, 0x00, 0x00, 0x01, 0x28, 0x00, 0x00, 0x00, 0x2c, 0x00, 0x00, 0x00, 
0x01, 0x00, 0x00, 0x00, 0x0c, 0x00, 0x10, 0x00, 0x00, 0x00, 0x0c, 0x00, 
0x08, 0x00, 0x07, 0x00, 0x0c, 0x00, 0x00, 0x00, 0x00, 0x00, 0x00, 0x01, 
0x01, 0x00, 0x00, 0x00, 0x01, 0x00, 0x00, 0x00, 0x01, 0x00, 0x00, 0x00, 
0x0d, 0x00, 0x00, 0x00, 0x03, 0x00, 0x00, 0x00, 0x0c, 0x00, 0x00, 0x00, 
0x04, 0x00, 0x00, 0x00, 0x06, 0x00, 0x00, 0x00, 0x00, 0x00, 0x0e, 0x00, 
0x14, 0x00, 0x00, 0x00, 0x10, 0x00, 0x0c, 0x00, 0x0b, 0x00, 0x04, 0x00, 
0x0e, 0x00, 0x00, 0x00, 0x10, 0x00, 0x00, 0x00, 0x00, 0x00, 0x00, 0x34, 
0x0c, 0x00, 0x00, 0x00, 0x10, 0x00, 0x00, 0x00, 0xe0, 0xf1, 0xff, 0xff, 
0x01, 0x00, 0x00, 0x00, 0x0c, 0x00, 0x00, 0x00, 0x02, 0x00, 0x00, 0x00, 
0x00, 0x00, 0x00, 0x00, 0x01, 0x00, 0x00, 0x00, 0x01, 0x00, 0x00, 0x00, 
0x17, 0x00, 0x00, 0x00, 0x01, 0x00, 0x00, 0x00, 0x00, 0x00, 0x00, 0x00, 
0x18, 0x00, 0x00, 0x00, 0xc8, 0x0d, 0x00, 0x00, 0x74, 0x0d, 0x00, 0x00, 
0x20, 0x0d, 0x00, 0x00, 0xd4, 0x0c, 0x00, 0x00, 0x60, 0x0c, 0x00, 0x00, 
0x84, 0x0b, 0x00, 0x00, 0xb4, 0x0a, 0x00, 0x00, 0x68, 0x0a, 0x00, 0x00, 
0x0c, 0x0a, 0x00, 0x00, 0xac, 0x09, 0x00, 0x00, 0x50, 0x09, 0x00, 0x00, 
0x54, 0x07, 0x00, 0x00, 0xd4, 0x06, 0x00, 0x00, 0xe0, 0x05, 0x00, 0x00, 
0x14, 0x05, 0x00, 0x00, 0x90, 0x04, 0x00, 0x00, 0x18, 0x04, 0x00, 0x00, 
0xa0, 0x03, 0x00, 0x00, 0x20, 0x03, 0x00, 0x00, 0x20, 0x02, 0x00, 0x00, 
0x4c, 0x01, 0x00, 0x00, 0xdc, 0x00, 0x00, 0x00, 0x60, 0x00, 0x00, 0x00, 
0x04, 0x00, 0x00, 0x00, 0xae, 0xf2, 0xff, 0xff, 0x00, 0x00, 0x00, 0x01, 
0x14, 0x00, 0x00, 0x00, 0x1c, 0x00, 0x00, 0x00, 0x1c, 0x00, 0x00, 0x00, 
0x18, 0x00, 0x00, 0x00, 0x34, 0x00, 0x00, 0x00, 0x02, 0x00, 0x00, 0x00, 
0xff, 0xff, 0xff, 0xff, 0x04, 0x00, 0x00, 0x00, 0x94, 0xf2, 0xff, 0xff, 
0x1b, 0x00, 0x00, 0x00, 0x53, 0x74, 0x61, 0x74, 0x65, 0x66, 0x75, 0x6c, 
0x50, 0x61, 0x72, 0x74, 0x69, 0x74, 0x69, 0x6f, 0x6e, 0x65, 0x64, 0x43, 
0x61, 0x6c, 0x6c, 0x5f, 0x31, 0x3a, 0x30, 0x00, 0x02, 0x00, 0x00, 0x00, 
0x01, 0x00, 0x00, 0x00, 0x04, 0x00, 0x00, 0x00, 0x06, 0xf3, 0xff, 0xff, 
0x00, 0x00, 0x00, 0x01, 0x14, 0x00, 0x00, 0x00, 0x1c, 0x00, 0x00, 0x00, 
0x1c, 0x00, 0x00, 0x00, 0x17, 0x00, 0x00, 0x00, 0x54, 0x00, 0x00, 0x00, 
0x02, 0x00, 0x00, 0x00, 0xff, 0xff, 0xff, 0xff, 0x04, 0x00, 0x00, 0x00, 
0xec, 0xf2, 0xff, 0xff, 0x38, 0x00, 0x00, 0x00, 0x73, 0x65, 0x71, 0x75, 
0x65, 0x6e, 0x74, 0x69, 0x61, 0x6c, 0x5f, 0x31, 0x2f, 0x64, 0x65, 0x6e, 
0x73, 0x65, 0x5f, 0x31, 0x2f, 0x4d, 0x61, 0x74, 0x4d, 0x75, 0x6c, 0x3b, 
0x73, 0x65, 0x71, 0x75, 0x65, 0x6e, 0x74, 0x69, 0x61, 0x6c, 0x5f, 0x31, 
0x2f, 0x64, 0x65, 0x6e, 0x73, 0x65, 0x5f, 0x31, 0x2f, 0x42, 0x69, 0x61, 
0x73, 0x41, 0x64, 0x64, 0x00, 0x00, 0x00, 0x00, 0x02, 0x00, 0x00, 0x00, 
0x01, 0x00, 0x00, 0x00, 0x04, 0x00, 0x00, 0x00, 0x7e, 0xf3, 0xff, 0xff, 
0x00, 0x00, 0x00, 0x01, 0x14, 0x00, 0x00, 0x00, 0x1c, 0x00, 0x00, 0x00, 
0x1c, 0x00, 0x00, 0x00, 0x16, 0x00, 0x00, 0x00, 0x48, 0x00, 0x00, 0x00, 
0x02, 0x00, 0x00, 0x00, 0xff, 0xff, 0xff, 0xff, 0x20, 0x00, 0x00, 0x00, 
0x64, 0xf3, 0xff, 0xff, 0x2c, 0x00, 0x00, 0x00, 0x73, 0x65, 0x71, 0x75, 
0x65, 0x6e, 0x74, 0x69, 0x61, 0x6c, 0x5f, 0x31, 0x2f, 0x67, 0x6c, 0x6f, 
0x62, 0x61, 0x6c, 0x5f, 0x61, 0x76, 0x65, 0x72, 0x61, 0x67, 0x65, 0x5f, 
0x70, 0x6f, 0x6f, 0x6c, 0x69, 0x6e, 0x67, 0x31, 0x64, 0x5f, 0x31, 0x2f, 
0x4d, 0x65, 0x61, 0x6e, 0x00, 0x00, 0x00, 0x00, 0x02, 0x00, 0x00, 0x00, 
0x01, 0x00, 0x00, 0x00, 0x20, 0x00, 0x00, 0x00, 0xea, 0xf3, 0xff, 0xff, 
0x00, 0x00, 0x00, 0x01, 0x14, 0x00, 0x00, 0x00, 0x20, 0x00, 0x00, 0x00, 
0x20, 0x00, 0x00, 0x00, 0x15, 0x00, 0x00, 0x00, 0xa8, 0x00, 0x00, 0x00, 
0x03, 0x00, 0x00, 0x00, 0xff, 0xff, 0xff, 0xff, 0x40, 0x00, 0x00, 0x00, 
0x20, 0x00, 0x00, 0x00, 0xd4, 0xf3, 0xff, 0xff, 0x88, 0x00, 0x00, 0x00, 
0x73, 0x65, 0x71, 0x75, 0x65, 0x6e, 0x74, 0x69, 0x61, 0x6c, 0x5f, 0x31, 
0x2f, 0x63, 0x6f, 0x6e, 0x76, 0x31, 0x64, 0x5f, 0x31, 0x5f, 0x32, 0x2f, 
0x52, 0x65, 0x6c, 0x75, 0x3b, 0x73, 0x65, 0x71, 0x75, 0x65, 0x6e, 0x74, 
0x69, 0x61, 0x6c, 0x5f, 0x31, 0x2f, 0x63, 0x6f, 0x6e, 0x76, 0x31, 0x64, 
0x5f, 0x31, 0x5f, 0x32, 0x2f, 0x42, 0x69, 0x61, 0x73, 0x41, 0x64, 0x64, 
0x3b, 0x73, 0x65, 0x71, 0x75, 0x65, 0x6e, 0x74, 0x69, 0x61, 0x6c, 0x5f, 
0x31, 0x2f, 0x63, 0x6f, 0x6e, 0x76, 0x31, 0x64, 0x5f, 0x31, 0x5f, 0x32, 
0x2f, 0x63, 0x6f, 0x6e, 0x76, 0x6f, 0x6c, 0x75, 0x74, 0x69, 0x6f, 0x6e, 
0x2f, 0x53, 0x71, 0x75, 0x65, 0x65, 0x7a, 0x65, 0x3b, 0x73, 0x65, 0x71, 
0x75, 0x65, 0x6e, 0x74, 0x69, 0x61, 0x6c, 0x5f, 0x31, 0x2f, 0x63, 0x6f, 
0x6e, 0x76, 0x31, 0x64, 0x5f, 0x31, 0x5f, 0x32, 0x2f, 0x53, 0x71, 0x75, 
0x65, 0x65, 0x7a, 0x65, 0x00, 0x00, 0x00, 0x00, 0x03, 0x00, 0x00, 0x00, 
0x01, 0x00, 0x00, 0x00, 0x40, 0x00, 0x00, 0x00, 0x20, 0x00, 0x00, 0x00, 
0xba, 0xf4, 0xff, 0xff, 0x00, 0x00, 0x00, 0x01, 0x14, 0x00, 0x00, 0x00, 
0x24, 0x00, 0x00, 0x00, 0x24, 0x00, 0x00, 0x00, 0x14, 0x00, 0x00, 0x00, 
0xd0, 0x00, 0x00, 0x00, 0x04, 0x00, 0x00, 0x00, 0xff, 0xff, 0xff, 0xff, 
0x01, 0x00, 0x00, 0x00, 0x40, 0x00, 0x00, 0x00, 0x20, 0x00, 0x00, 0x00, 
0xa8, 0xf4, 0xff, 0xff, 0xad, 0x00, 0x00, 0x00, 0x73, 0x65, 0x71, 0x75, 
0x65, 0x6e, 0x74, 0x69, 0x61, 0x6c, 0x5f, 0x31, 0x2f, 0x63, 0x6f, 0x6e, 
0x76, 0x31, 0x64, 0x5f, 0x31, 0x5f, 0x32, 0x2f, 0x52, 0x65, 0x6c, 0x75, 
0x3b, 0x73, 0x65, 0x71, 0x75, 0x65, 0x6e, 0x74, 0x69, 0x61, 0x6c, 0x5f, 
0x31, 0x2f, 0x63, 0x6f, 0x6e, 0x76, 0x31, 0x64, 0x5f, 0x31, 0x5f, 0x32, 
0x2f, 0x42, 0x69, 0x61, 0x73, 0x41, 0x64, 0x64, 0x3b, 0x73, 0x65, 0x71, 
0x75, 0x65, 0x6e, 0x74, 0x69, 0x61, 0x6c, 0x5f, 0x31, 0x2f, 0x63, 0x6f, 
0x6e, 0x76, 0x31, 0x64, 0x5f, 0x31, 0x5f, 0x32, 0x2f, 0x63, 0x6f, 0x6e, 
0x76, 0x6f, 0x6c, 0x75, 0x74, 0x69, 0x6f, 0x6e, 0x2f, 0x53, 0x71, 0x75, 
0x65, 0x65, 0x7a, 0x65, 0x3b, 0x73, 0x65, 0x71, 0x75, 0x65, 0x6e, 0x74, 
0x69, 0x61, 0x6c, 0x5f, 0x31, 0x2f, 0x63, 0x6f, 0x6e, 0x76, 0x31, 0x64, 
0x5f, 0x31, 0x5f, 0x32, 0x2f, 0x53, 0x71, 0x75, 0x65, 0x65, 0x7a, 0x65, 
0x3b, 0x73, 0x65, 0x71, 0x75, 0x65, 0x6e, 0x74, 0x69, 0x61, 0x6c, 0x5f, 
0x31, 0x2f, 0x63, 0x6f, 0x6e, 0x76, 0x31, 0x64, 0x5f, 0x31, 0x5f, 0x32, 
0x2f, 0x63, 0x6f, 0x6e, 0x76, 0x6f, 0x6c, 0x75, 0x74, 0x69, 0x6f, 0x6e, 
0x31, 0x00, 0x00, 0x00, 0x04, 0x00, 0x00, 0x00, 0x01, 0x00, 0x00, 0x00, 
0x01, 0x00, 0x00, 0x00, 0x40, 0x00, 0x00, 0x00, 0x20, 0x00, 0x00, 0x00, 
0xb6, 0xf5, 0xff, 0xff, 0x00, 0x00, 0x00, 0x01, 0x14, 0x00, 0x00, 0x00, 
0x24, 0x00, 0x00, 0x00, 0x24, 0x00, 0x00, 0x00, 0x13, 0x00, 0x00, 0x00, 
0x50, 0x00, 0x00, 0x00, 0x04, 0x00, 0x00, 0x00, 0xff, 0xff, 0xff, 0xff, 
0x01, 0x00, 0x00, 0x00, 0x40, 0x00, 0x00, 0x00, 0x10, 0x00, 0x00, 0x00, 
0xa4, 0xf5, 0xff, 0xff, 0x2e, 0x00, 0x00, 0x00, 0x73, 0x65, 0x71, 0x75, 
0x65, 0x6e, 0x74, 0x69, 0x61, 0x6c, 0x5f, 0x31, 0x2f, 0x63, 0x6f, 0x6e, 
0x76, 0x31, 0x64, 0x5f, 0x31, 0x5f, 0x32, 0x2f, 0x63, 0x6f, 0x6e, 0x76, 
0x6f, 0x6c, 0x75, 0x74, 0x69, 0x6f, 0x6e, 0x2f, 0x45, 0x78, 0x70, 0x61, 
0x6e, 0x64, 0x44, 0x69, 0x6d, 0x73, 0x00, 0x00, 0x04, 0x00, 0x00, 0x00, 
0x01, 0x00, 0x00, 0x00, 0x01, 0x00, 0x00, 0x00, 0x40, 0x00, 0x00, 0x00, 
0x10, 0x00, 0x00, 0x00, 0x32, 0xf6, 0xff, 0xff, 0x00, 0x00, 0x00, 0x01, 
0x14, 0x00, 0x00, 0x00, 0x20, 0x00, 0x00, 0x00, 0x20, 0x00, 0x00, 0x00, 
0x12, 0x00, 0x00, 0x00, 0x4c, 0x00, 0x00, 0x00, 0x03, 0x00, 0x00, 0x00, 
0xff, 0xff, 0xff, 0xff, 0x40, 0x00, 0x00, 0x00, 0x10, 0x00, 0x00, 0x00, 
0x1c, 0xf6, 0xff, 0xff, 0x2f, 0x00, 0x00, 0x00, 0x73, 0x65, 0x71, 0x75, 
0x65, 0x6e, 0x74, 0x69, 0x61, 0x6c, 0x5f, 0x31, 0x2f, 0x6d, 0x61, 0x78, 
0x5f, 0x70, 0x6f, 0x6f, 0x6c, 0x69, 0x6e, 0x67, 0x31, 0x64, 0x5f, 0x31, 
0x2f, 0x4d, 0x61, 0x78, 0x50, 0x6f, 0x6f, 0x6c, 0x31, 0x64, 0x2f, 0x53, 
0x71, 0x75, 0x65, 0x65, 0x7a, 0x65, 0x31, 0x00, 0x03, 0x00, 0x00, 0x00, 
0x01, 0x00, 0x00, 0x00, 0x40, 0x00, 0x00, 0x00, 0x10, 0x00, 0x00, 0x00, 
0xa6, 0xf6, 0xff, 0xff, 0x00, 0x00, 0x00, 0x01, 0x14, 0x00, 0x00, 0x00, 
0x24, 0x00, 0x00, 0x00, 0x24, 0x00, 0x00, 0x00, 0x11, 0x00, 0x00, 0x00, 
0x48, 0x00, 0x00, 0x00, 0x04, 0x00, 0x00, 0x00, 0xff, 0xff, 0xff, 0xff, 
0x01, 0x00, 0x00, 0x00, 0x40, 0x00, 0x00, 0x00, 0x10, 0x00, 0x00, 0x00, 
0x94, 0xf6, 0xff, 0xff, 0x26, 0x00, 0x00, 0x00, 0x73, 0x65, 0x71, 0x75, 
0x65, 0x6e, 0x74, 0x69, 0x61, 0x6c, 0x5f, 0x31, 0x2f, 0x6d, 0x61, 0x78, 
0x5f, 0x70, 0x6f, 0x6f, 0x6c, 0x69, 0x6e, 0x67, 0x31, 0x64, 0x5f, 0x31, 
0x2f, 0x4d, 0x61, 0x78, 0x50, 0x6f, 0x6f, 0x6c, 0x31, 0x64, 0x00, 0x00, 
0x04, 0x00, 0x00, 0x00, 0x01, 0x00, 0x00, 0x00, 0x01, 0x00, 0x00, 0x00, 
0x40, 0x00, 0x00, 0x00, 0x10, 0x00, 0x00, 0x00, 0x1a, 0xf7, 0xff, 0xff, 
0x00, 0x00, 0x00, 0x01, 0x14, 0x00, 0x00, 0x00, 0x24, 0x00, 0x00, 0x00, 
0x24, 0x00, 0x00, 0x00, 0x10, 0x00, 0x00, 0x00, 0x54, 0x00, 0x00, 0x00, 
0x04, 0x00, 0x00, 0x00, 0xff, 0xff, 0xff, 0xff, 0x01, 0x00, 0x00, 0x00, 
0x80, 0x00, 0x00, 0x00, 0x10, 0x00, 0x00, 0x00, 0x08, 0xf7, 0xff, 0xff, 
0x31, 0x00, 0x00, 0x00, 0x73, 0x65, 0x71, 0x75, 0x65, 0x6e, 0x74, 0x69, 
0x61, 0x6c, 0x5f, 0x31, 0x2f, 0x6d, 0x61, 0x78, 0x5f, 0x70, 0x6f, 0x6f, 
0x6c, 0x69, 0x6e, 0x67, 0x31, 0x64, 0x5f, 0x31, 0x2f, 0x4d, 0x61, 0x78, 
0x50, 0x6f, 0x6f, 0x6c, 0x31, 0x64, 0x2f, 0x45, 0x78, 0x70, 0x61, 0x6e, 
0x64, 0x44, 0x69, 0x6d, 0x73, 0x00, 0x00, 0x00, 0x04, 0x00, 0x00, 0x00, 
0x01, 0x00, 0x00, 0x00, 0x01, 0x00, 0x00, 0x00, 0x80, 0x00, 0x00, 0x00, 
0x10, 0x00, 0x00, 0x00, 0x9a, 0xf7, 0xff, 0xff, 0x00, 0x00, 0x00, 0x01, 
0x14, 0x00, 0x00, 0x00, 0x20, 0x00, 0x00, 0x00, 0x20, 0x00, 0x00, 0x00, 
0x0f, 0x00, 0x00, 0x00, 0xa0, 0x00, 0x00, 0x00, 0x03, 0x00, 0x00, 0x00, 
0xff, 0xff, 0xff, 0xff, 0x80, 0x00, 0x00, 0x00, 0x10, 0x00, 0x00, 0x00, 
0x84, 0xf7, 0xff, 0xff, 0x80, 0x00, 0x00, 0x00, 0x73, 0x65, 0x71, 0x75, 
0x65, 0x6e, 0x74, 0x69, 0x61, 0x6c, 0x5f, 0x31, 0x2f, 0x63, 0x6f, 0x6e, 
0x76, 0x31, 0x64, 0x5f, 0x31, 0x2f, 0x52, 0x65, 0x6c, 0x75, 0x3b, 0x73, 
0x65, 0x71, 0x75, 0x65, 0x6e, 0x74, 0x69, 0x61, 0x6c, 0x5f, 0x31, 0x2f, 
0x63, 0x6f, 0x6e, 0x76, 0x31, 0x64, 0x5f, 0x31, 0x2f, 0x42, 0x69, 0x61, 
0x73, 0x41, 0x64, 0x64, 0x3b, 0x73, 0x65, 0x71, 0x75, 0x65, 0x6e, 0x74, 
0x69, 0x61, 0x6c, 0x5f, 0x31, 0x2f, 0x63, 0x6f, 0x6e, 0x76, 0x31, 0x64, 
0x5f, 0x31, 0x2f, 0x63, 0x6f, 0x6e, 0x76, 0x6f, 0x6c, 0x75, 0x74, 0x69, 
0x6f, 0x6e, 0x2f, 0x53, 0x71, 0x75, 0x65, 0x65, 0x7a, 0x65, 0x3b, 0x73, 
0x65, 0x71, 0x75, 0x65, 0x6e, 0x74, 0x69, 0x61, 0x6c, 0x5f, 0x31, 0x2f, 
0x63, 0x6f, 0x6e, 0x76, 0x31, 0x64, 0x5f, 0x31, 0x2f, 0x53, 0x71, 0x75, 
0x65, 0x65, 0x7a, 0x65, 0x00, 0x00, 0x00, 0x00, 0x03, 0x00, 0x00, 0x00, 
0x01, 0x00, 0x00, 0x00, 0x80, 0x00, 0x00, 0x00, 0x10, 0x00, 0x00, 0x00, 
0x62, 0xf8, 0xff, 0xff, 0x00, 0x00, 0x00, 0x01, 0x14, 0x00, 0x00, 0x00, 
0x24, 0x00, 0x00, 0x00, 0x24, 0x00, 0x00, 0x00, 0x0e, 0x00, 0x00, 0x00, 
0xc4, 0x00, 0x00, 0x00, 0x04, 0x00, 0x00, 0x00, 0xff, 0xff, 0xff, 0xff, 
0x01, 0x00, 0x00, 0x00, 0x80, 0x00, 0x00, 0x00, 0x10, 0x00, 0x00, 0x00, 
0x50, 0xf8, 0xff, 0xff, 0xa3, 0x00, 0x00, 0x00, 0x73, 0x65, 0x71, 0x75, 
0x65, 0x6e, 0x74, 0x69, 0x61, 0x6c, 0x5f, 0x31, 0x2f, 0x63, 0x6f, 0x6e, 
0x76, 0x31, 0x64, 0x5f, 0x31, 0x2f, 0x52, 0x65, 0x6c, 0x75, 0x3b, 0x73, 
0x65, 0x71, 0x75, 0x65, 0x6e, 0x74, 0x69, 0x61, 0x6c, 0x5f, 0x31, 0x2f, 
0x63, 0x6f, 0x6e, 0x76, 0x31, 0x64, 0x5f, 0x31, 0x2f, 0x42, 0x69, 0x61, 
0x73, 0x41, 0x64, 0x64, 0x3b, 0x73, 0x65, 0x71, 0x75, 0x65, 0x6e, 0x74, 
0x69, 0x61, 0x6c, 0x5f, 0x31, 0x2f, 0x63, 0x6f, 0x6e, 0x76, 0x31, 0x64, 
0x5f, 0x31, 0x2f, 0x63, 0x6f, 0x6e, 0x76, 0x6f, 0x6c, 0x75, 0x74, 0x69, 
0x6f, 0x6e, 0x2f, 0x53, 0x71, 0x75, 0x65, 0x65, 0x7a, 0x65, 0x3b, 0x73, 
0x65, 0x71, 0x75, 0x65, 0x6e, 0x74, 0x69, 0x61, 0x6c, 0x5f, 0x31, 0x2f, 
0x63, 0x6f, 0x6e, 0x76, 0x31, 0x64, 0x5f, 0x31, 0x2f, 0x53, 0x71, 0x75, 
0x65, 0x65, 0x7a, 0x65, 0x3b, 0x73, 0x65, 0x71, 0x75, 0x65, 0x6e, 0x74, 
0x69, 0x61, 0x6c, 0x5f, 0x31, 0x2f, 0x63, 0x6f, 0x6e, 0x76, 0x31, 0x64, 
0x5f, 0x31, 0x2f, 0x63, 0x6f, 0x6e, 0x76, 0x6f, 0x6c, 0x75, 0x74, 0x69, 
0x6f, 0x6e, 0x31, 0x00, 0x04, 0x00, 0x00, 0x00, 0x01, 0x00, 0x00, 0x00, 
0x01, 0x00, 0x00, 0x00, 0x80, 0x00, 0x00, 0x00, 0x10, 0x00, 0x00, 0x00, 
0x52, 0xf9, 0xff, 0xff, 0x00, 0x00, 0x00, 0x01, 0x14, 0x00, 0x00, 0x00, 
0x24, 0x00, 0x00, 0x00, 0x24, 0x00, 0x00, 0x00, 0x0d, 0x00, 0x00, 0x00, 
0x50, 0x00, 0x00, 0x00, 0x04, 0x00, 0x00, 0x00, 0xff, 0xff, 0xff, 0xff, 
0x01, 0x00, 0x00, 0x00, 0x80, 0x00, 0x00, 0x00, 0x06, 0x00, 0x00, 0x00, 
0x40, 0xf9, 0xff, 0xff, 0x2c, 0x00, 0x00, 0x00, 0x73, 0x65, 0x71, 0x75, 
0x65, 0x6e, 0x74, 0x69, 0x61, 0x6c, 0x5f, 0x31, 0x2f, 0x63, 0x6f, 0x6e, 
0x76, 0x31, 0x64, 0x5f, 0x31, 0x2f, 0x63, 0x6f, 0x6e, 0x76, 0x6f, 0x6c, 
0x75, 0x74, 0x69, 0x6f, 0x6e, 0x2f, 0x45, 0x78, 0x70, 0x61, 0x6e, 0x64, 
0x44, 0x69, 0x6d, 0x73, 0x00, 0x00, 0x00, 0x00, 0x04, 0x00, 0x00, 0x00, 
0x01, 0x00, 0x00, 0x00, 0x01, 0x00, 0x00, 0x00, 0x80, 0x00, 0x00, 0x00, 
0x06, 0x00, 0x00, 0x00, 0x1e, 0xfa, 0xff, 0xff, 0x00, 0x00, 0x00, 0x01, 
0x20, 0x00, 0x00, 0x00, 0xb0, 0x01, 0x00, 0x00, 0x0c, 0x00, 0x00, 0x00, 
0x00, 0x00, 0x00, 0x09, 0xcc, 0x01, 0x00, 0x00, 0x0c, 0x00, 0x0c, 0x00, 
0x00, 0x00, 0x00, 0x00, 0x08, 0x00, 0x04, 0x00, 0x0c, 0x00, 0x00, 0x00, 
0x08, 0x00, 0x00, 0x00, 0x08, 0x01, 0x00, 0x00, 0x20, 0x00, 0x00, 0x00, 
0x00, 0x00, 0x00, 0x00, 0x00, 0x00, 0x00, 0x00, 0x00, 0x00, 0x00, 0x00, 
0x00, 0x00, 0x00, 0x00, 0x00, 0x00, 0x00, 0x00, 0x00, 0x00, 0x00, 0x00, 
0x00, 0x00, 0x00, 0x00, 0x00, 0x00, 0x00, 0x00, 0x00, 0x00, 0x00, 0x00, 
0x00, 0x00, 0x00, 0x00, 0x00, 0x00, 0x00, 0x00, 0x00, 0x00, 0x00, 0x00, 
0x00, 0x00, 0x00, 0x00, 0x00, 0x00, 0x00, 0x00, 0x00, 0x00, 0x00, 0x00, 
0x00, 0x00, 0x00, 0x00, 0x00, 0x00, 0x00, 0x00, 0x00, 0x00, 0x00, 0x00, 
0x00, 0x00, 0x00, 0x00, 0x00, 0x00, 0x00, 0x00, 0x00, 0x00, 0x00, 0x00, 
0x00, 0x00, 0x00, 0x00, 0x00, 0x00, 0x00, 0x00, 0x00, 0x00, 0x00, 0x00, 
0x00, 0x00, 0x00, 0x00, 0x00, 0x00, 0x00, 0x00, 0x00, 0x00, 0x00, 0x00, 
0x00, 0x00, 0x00, 0x00, 0x00, 0x00, 0x00, 0x00, 0x00, 0x00, 0x00, 0x00, 
0x00, 0x00, 0x00, 0x00, 0x00, 0x00, 0x00, 0x00, 0x00, 0x00, 0x00, 0x00, 
0x00, 0x00, 0x00, 0x00, 0x00, 0x00, 0x00, 0x00, 0x00, 0x00, 0x00, 0x00, 
0x00, 0x00, 0x00, 0x00, 0x00, 0x00, 0x00, 0x00, 0x00, 0x00, 0x00, 0x00, 
0x00, 0x00, 0x00, 0x00, 0x00, 0x00, 0x00, 0x00, 0x00, 0x00, 0x00, 0x00, 
0x00, 0x00, 0x00, 0x00, 0x00, 0x00, 0x00, 0x00, 0x00, 0x00, 0x00, 0x00, 
0x00, 0x00, 0x00, 0x00, 0x00, 0x00, 0x00, 0x00, 0x00, 0x00, 0x00, 0x00, 
0x00, 0x00, 0x00, 0x00, 0x00, 0x00, 0x00, 0x00, 0x00, 0x00, 0x00, 0x00, 
0x00, 0x00, 0x00, 0x00, 0x00, 0x00, 0x00, 0x00, 0x00, 0x00, 0x00, 0x00, 
0x00, 0x00, 0x00, 0x00, 0x00, 0x00, 0x00, 0x00, 0x00, 0x00, 0x00, 0x00, 
0x00, 0x00, 0x00, 0x00, 0x00, 0x00, 0x00, 0x00, 0x00, 0x00, 0x00, 0x00, 
0x00, 0x00, 0x00, 0x00, 0x00, 0x00, 0x00, 0x00, 0x00, 0x00, 0x00, 0x00, 
0x00, 0x00, 0x00, 0x00, 0x20, 0x00, 0x00, 0x00, 0x97, 0x8b, 0x1b, 0x3b, 
0xb4, 0x52, 0x20, 0x3b, 0x95, 0x2d, 0x1d, 0x3b, 0x3c, 0xbf, 0xef, 0x3a, 
0x4c, 0xbf, 0x0d, 0x3b, 0xa5, 0x72, 0x1e, 0x3b, 0x9f, 0xef, 0x1c, 0x3b, 
0xa5, 0xd1, 0xd6, 0x3a, 0x60, 0xc6, 0x19, 0x3b, 0x47, 0x72, 0x13, 0x3b, 
0xf9, 0xff, 0xf3, 0x3a, 0x8b, 0xcf, 0x06, 0x3b, 0xf8, 0x68, 0xdb, 0x3a, 
0x01, 0x25, 0x13, 0x3b, 0x61, 0xde, 0xca, 0x3a, 0xf4, 0x29, 0xe9, 0x3a, 
0x64, 0x38, 0x1d, 0x3b, 0x45, 0x40, 0xd2, 0x3a, 0xdf, 0xa1, 0xee, 0x3a, 
0xe6, 0xaf, 0xe7, 0x3a, 0xa5, 0x7a, 0x10, 0x3b, 0x06, 0x0e, 0xe0, 0x3a, 
0x56, 0x27, 0x16, 0x3b, 0x08, 0x30, 0x28, 0x3b, 0x62, 0x1b, 0x25, 0x3b, 
0xf7, 0xc7, 0x23, 0x3b, 0xd0, 0x61, 0x14, 0x3b, 0x75, 0x17, 0xd5, 0x3a, 
0x3b, 0x8b, 0x1e, 0x3b, 0x3d, 0x9b, 0xd3, 0x3a, 0xa6, 0x93, 0x1d, 0x3b, 
0x5d, 0x9f, 0x22, 0x3b, 0x23, 0x00, 0x00, 0x00, 0x73, 0x65, 0x71, 0x75, 
0x65, 0x6e, 0x74, 0x69, 0x61, 0x6c, 0x5f, 0x31, 0x2f, 0x63, 0x6f, 0x6e, 
0x76, 0x31, 0x64, 0x5f, 0x31, 0x5f, 0x32, 0x2f, 0x63, 0x6f, 0x6e, 0x76, 
0x6f, 0x6c, 0x75, 0x74, 0x69, 0x6f, 0x6e, 0x00, 0x04, 0x00, 0x00, 0x00, 
0x20, 0x00, 0x00, 0x00, 0x01, 0x00, 0x00, 0x00, 0x03, 0x00, 0x00, 0x00, 
0x10, 0x00, 0x00, 0x00, 0x16, 0xfc, 0xff, 0xff, 0x00, 0x00, 0x00, 0x01, 
0x14, 0x00, 0x00, 0x00, 0x14, 0x00, 0x00, 0x00, 0x0b, 0x00, 0x00, 0x00, 
0x00, 0x00, 0x00, 0x02, 0x38, 0x00, 0x00, 0x00, 0xa0, 0xfb, 0xff, 0xff, 
0x29, 0x00, 0x00, 0x00, 0x73, 0x65, 0x71, 0x75, 0x65, 0x6e, 0x74, 0x69, 
0x61, 0x6c, 0x5f, 0x31, 0x2f, 0x63, 0x6f, 0x6e, 0x76, 0x31, 0x64, 0x5f, 
0x31, 0x2f, 0x63, 0x6f, 0x6e, 0x76, 0x6f, 0x6c, 0x75, 0x74, 0x69, 0x6f, 
0x6e, 0x2f, 0x53, 0x71, 0x75, 0x65, 0x65, 0x7a, 0x65, 0x00, 0x00, 0x00, 
0x01, 0x00, 0x00, 0x00, 0x03, 0x00, 0x00, 0x00, 0x6e, 0xfc, 0xff, 0xff, 
0x00, 0x00, 0x00, 0x01, 0x14, 0x00, 0x00, 0x00, 0x14, 0x00, 0x00, 0x00, 
0x0a, 0x00, 0x00, 0x00, 0x00, 0x00, 0x00, 0x02, 0x3c, 0x00, 0x00, 0x00, 
0xf8, 0xfb, 0xff, 0xff, 0x2e, 0x00, 0x00, 0x00, 0x73, 0x65, 0x71, 0x75, 
0x65, 0x6e, 0x74, 0x69, 0x61, 0x6c, 0x5f, 0x31, 0x2f, 0x6d, 0x61, 0x78, 
0x5f, 0x70, 0x6f, 0x6f, 0x6c, 0x69, 0x6e, 0x67, 0x31, 0x64, 0x5f, 0x31, 
0x2f, 0x4d, 0x61, 0x78, 0x50, 0x6f, 0x6f, 0x6c, 0x31, 0x64, 0x2f, 0x53, 
0x71, 0x75, 0x65, 0x65, 0x7a, 0x65, 0x00, 0x00, 0x01, 0x00, 0x00, 0x00, 
0x03, 0x00, 0x00, 0x00, 0xca, 0xfc, 0xff, 0xff, 0x00, 0x00, 0x00, 0x01, 
0x14, 0x00, 0x00, 0x00, 0x14, 0x00, 0x00, 0x00, 0x09, 0x00, 0x00, 0x00, 
0x00, 0x00, 0x00, 0x02, 0x38, 0x00, 0x00, 0x00, 0x54, 0xfc, 0xff, 0xff, 
0x2b, 0x00, 0x00, 0x00, 0x73, 0x65, 0x71, 0x75, 0x65, 0x6e, 0x74, 0x69, 
0x61, 0x6c, 0x5f, 0x31, 0x2f, 0x63, 0x6f, 0x6e, 0x76, 0x31, 0x64, 0x5f, 
0x31, 0x5f, 0x32, 0x2f, 0x63, 0x6f, 0x6e, 0x76, 0x6f, 0x6c, 0x75, 0x74, 
0x69, 0x6f, 0x6e, 0x2f, 0x53, 0x71, 0x75, 0x65, 0x65, 0x7a, 0x65, 0x00, 
0x01, 0x00, 0x00, 0x00, 0x03, 0x00, 0x00, 0x00, 0xba, 0xfd, 0xff, 0xff, 
0x00, 0x00, 0x00, 0x01, 0x10, 0x00, 0x00, 0x00, 0x10, 0x00, 0x00, 0x00, 
0x08, 0x00, 0x00, 0x00, 0x2c, 0x00, 0x00, 0x00, 0xa8, 0xfc, 0xff, 0xff, 
0x1c, 0x00, 0x00, 0x00, 0x73, 0x65, 0x71, 0x75, 0x65, 0x6e, 0x74, 0x69, 
0x61, 0x6c, 0x5f, 0x31, 0x2f, 0x64, 0x65, 0x6e, 0x73, 0x65, 0x5f, 0x31, 
0x2f, 0x42, 0x69, 0x61, 0x73, 0x41, 0x64, 0x64, 0x00, 0x00, 0x00, 0x00, 
0x01, 0x00, 0x00, 0x00, 0x04, 0x00, 0x00, 0x00, 0x02, 0xfe, 0xff, 0xff, 
0x00, 0x00, 0x00, 0x01, 0x10, 0x00, 0x00, 0x00, 0x10, 0x00, 0x00, 0x00, 
0x07, 0x00, 0x00, 0x00, 0xb0, 0x00, 0x00, 0x00, 0xf0, 0xfc, 0xff, 0xff, 
0xa2, 0x00, 0x00, 0x00, 0x73, 0x65, 0x71, 0x75, 0x65, 0x6e, 0x74, 0x69, 
0x61, 0x6c, 0x5f, 0x31, 0x2f, 0x63, 0x6f, 0x6e, 0x76, 0x31, 0x64, 0x5f, 
0x31, 0x2f, 0x52, 0x65, 0x6c, 0x75, 0x3b, 0x73, 0x65, 0x71, 0x75, 0x65, 
0x6e, 0x74, 0x69, 0x61, 0x6c, 0x5f, 0x31, 0x2f, 0x63, 0x6f, 0x6e, 0x76, 
0x31, 0x64, 0x5f, 0x31, 0x2f, 0x42, 0x69, 0x61, 0x73, 0x41, 0x64, 0x64, 
0x3b, 0x73, 0x65, 0x71, 0x75, 0x65, 0x6e, 0x74, 0x69, 0x61, 0x6c, 0x5f, 
0x31, 0x2f, 0x63, 0x6f, 0x6e, 0x76, 0x31, 0x64, 0x5f, 0x31, 0x2f, 0x63, 
0x6f, 0x6e, 0x76, 0x6f, 0x6c, 0x75, 0x74, 0x69, 0x6f, 0x6e, 0x2f, 0x53, 
0x71, 0x75, 0x65, 0x65, 0x7a, 0x65, 0x3b, 0x73, 0x65, 0x71, 0x75, 0x65, 
0x6e, 0x74, 0x69, 0x61, 0x6c, 0x5f, 0x31, 0x2f, 0x63, 0x6f, 0x6e, 0x76, 
0x31, 0x64, 0x5f, 0x31, 0x2f, 0x53, 0x71, 0x75, 0x65, 0x65, 0x7a, 0x65, 
0x3b, 0x73, 0x65, 0x71, 0x75, 0x65, 0x6e, 0x74, 0x69, 0x61, 0x6c, 0x5f, 
0x31, 0x2f, 0x63, 0x6f, 0x6e, 0x76, 0x31, 0x64, 0x5f, 0x31, 0x2f, 0x63, 
0x6f, 0x6e, 0x76, 0x6f, 0x6c, 0x75, 0x74, 0x69, 0x6f, 0x6e, 0x00, 0x00, 
0x01, 0x00, 0x00, 0x00, 0x10, 0x00, 0x00, 0x00, 0xce, 0xfe, 0xff, 0xff, 
0x00, 0x00, 0x00, 0x01, 0x10, 0x00, 0x00, 0x00, 0x10, 0x00, 0x00, 0x00, 
0x06, 0x00, 0x00, 0x00, 0xbc, 0x00, 0x00, 0x00, 0xbc, 0xfd, 0xff, 0xff, 
0xac, 0x00, 0x00, 0x00, 0x73, 0x65, 0x71, 0x75, 0x65, 0x6e, 0x74, 0x69, 
0x61, 0x6c, 0x5f, 0x31, 0x2f, 0x63, 0x6f, 0x6e, 0x76, 0x31, 0x64, 0x5f, 
0x31, 0x5f, 0x32, 0x2f, 0x52, 0x65, 0x6c, 0x75, 0x3b, 0x73, 0x65, 0x71, 
0x75, 0x65, 0x6e, 0x74, 0x69, 0x61, 0x6c, 0x5f, 0x31, 0x2f, 0x63, 0x6f, 
0x6e, 0x76, 0x31, 0x64, 0x5f, 0x31, 0x5f, 0x32, 0x2f, 0x42, 0x69, 0x61, 
0x73, 0x41, 0x64, 0x64, 0x3b, 0x73, 0x65, 0x71, 0x75, 0x65, 0x6e, 0x74, 
0x69, 0x61, 0x6c, 0x5f, 0x31, 0x2f, 0x63, 0x6f, 0x6e, 0x76, 0x31, 0x64, 
0x5f, 0x31, 0x5f, 0x32, 0x2f, 0x63, 0x6f, 0x6e, 0x76, 0x6f, 0x6c, 0x75, 
0x74, 0x69, 0x6f, 0x6e, 0x2f, 0x53, 0x71, 0x75, 0x65, 0x65, 0x7a, 0x65, 
0x3b, 0x73, 0x65, 0x71, 0x75, 0x65, 0x6e, 0x74, 0x69, 0x61, 0x6c, 0x5f, 
0x31, 0x2f, 0x63, 0x6f, 0x6e, 0x76, 0x31, 0x64, 0x5f, 0x31, 0x5f, 0x32, 
0x2f, 0x53, 0x71, 0x75, 0x65, 0x65, 0x7a, 0x65, 0x3b, 0x73, 0x65, 0x71, 
0x75, 0x65, 0x6e, 0x74, 0x69, 0x61, 0x6c, 0x5f, 0x31, 0x2f, 0x63, 0x6f, 
0x6e, 0x76, 0x31, 0x64, 0x5f, 0x31, 0x5f, 0x32, 0x2f, 0x63, 0x6f, 0x6e, 
0x76, 0x6f, 0x6c, 0x75, 0x74, 0x69, 0x6f, 0x6e, 0x00, 0x00, 0x00, 0x00, 
0x01, 0x00, 0x00, 0x00, 0x20, 0x00, 0x00, 0x00, 0xa6, 0xff, 0xff, 0xff, 
0x00, 0x00, 0x00, 0x01, 0x10, 0x00, 0x00, 0x00, 0x10, 0x00, 0x00, 0x00, 
0x05, 0x00, 0x00, 0x00, 0x30, 0x00, 0x00, 0x00, 0x94, 0xfe, 0xff, 0xff, 
0x21, 0x00, 0x00, 0x00, 0x73, 0x65, 0x71, 0x75, 0x65, 0x6e, 0x74, 0x69, 
0x61, 0x6c, 0x5f, 0x31, 0x2f, 0x63, 0x6f, 0x6e, 0x76, 0x31, 0x64, 0x5f, 
0x31, 0x2f, 0x63, 0x6f, 0x6e, 0x76, 0x6f, 0x6c, 0x75, 0x74, 0x69, 0x6f, 
0x6e, 0x00, 0x00, 0x00, 0x04, 0x00, 0x00, 0x00, 0x10, 0x00, 0x00, 0x00, 
0x01, 0x00, 0x00, 0x00, 0x03, 0x00, 0x00, 0x00, 0x06, 0x00, 0x00, 0x00, 
0x00, 0x00, 0x16, 0x00, 0x18, 0x00, 0x14, 0x00, 0x00, 0x00, 0x10, 0x00, 
0x0c, 0x00, 0x08, 0x00, 0x00, 0x00, 0x00, 0x00, 0x00, 0x00, 0x07, 0x00, 
0x16, 0x00, 0x00, 0x00, 0x00, 0x00, 0x00, 0x01, 0x10, 0x00, 0x00, 0x00, 
0x10, 0x00, 0x00, 0x00, 0x04, 0x00, 0x00, 0x00, 0x28, 0x00, 0x00, 0x00, 
0x04, 0xff, 0xff, 0xff, 0x1b, 0x00, 0x00, 0x00, 0x73, 0x65, 0x71, 0x75, 
0x65, 0x6e, 0x74, 0x69, 0x61, 0x6c, 0x5f, 0x31, 0x2f, 0x64, 0x65, 0x6e, 
0x73, 0x65, 0x5f, 0x31, 0x2f, 0x4d, 0x61, 0x74, 0x4d, 0x75, 0x6c, 0x00, 
0x02, 0x00, 0x00, 0x00, 0x04, 0x00, 0x00, 0x00, 0x20, 0x00, 0x00, 0x00, 
0xc6, 0xff, 0xff, 0xff, 0x00, 0x00, 0x00, 0x01, 0x14, 0x00, 0x00, 0x00, 
0x14, 0x00, 0x00, 0x00, 0x03, 0x00, 0x00, 0x00, 0x00, 0x00, 0x00, 0x02, 
0x1c, 0x00, 0x00, 0x00, 0x50, 0xff, 0xff, 0xff, 0x0f, 0x00, 0x00, 0x00, 
0x61, 0x72, 0x69, 0x74, 0x68, 0x2e, 0x63, 0x6f, 0x6e, 0x73, 0x74, 0x61, 
0x6e, 0x74, 0x31, 0x00, 0x00, 0x00, 0x00, 0x00, 0x00, 0x00, 0x16, 0x00, 
0x1c, 0x00, 0x18, 0x00, 0x17, 0x00, 0x10, 0x00, 0x0c, 0x00, 0x08, 0x00, 
0x00, 0x00, 0x00, 0x00, 0x00, 0x00, 0x07, 0x00, 0x16, 0x00, 0x00, 0x00, 
0x00, 0x00, 0x00, 0x01, 0x14, 0x00, 0x00, 0x00, 0x14, 0x00, 0x00, 0x00, 
0x02, 0x00, 0x00, 0x00, 0x00, 0x00, 0x00, 0x02, 0x1c, 0x00, 0x00, 0x00, 
0xa0, 0xff, 0xff, 0xff, 0x0e, 0x00, 0x00, 0x00, 0x61, 0x72, 0x69, 0x74, 
0x68, 0x2e, 0x63, 0x6f, 0x6e, 0x73, 0x74, 0x61, 0x6e, 0x74, 0x00, 0x00, 
0x00, 0x00, 0x00, 0x00, 0x00, 0x00, 0x16, 0x00, 0x1c, 0x00, 0x18, 0x00, 
0x00, 0x00, 0x14, 0x00, 0x10, 0x00, 0x0c, 0x00, 0x00, 0x00, 0x00, 0x00, 
0x08, 0x00, 0x07, 0x00, 0x16, 0x00, 0x00, 0x00, 0x00, 0x00, 0x00, 0x01, 
0x14, 0x00, 0x00, 0x00, 0x24, 0x00, 0x00, 0x00, 0x24, 0x00, 0x00, 0x00, 
0x01, 0x00, 0x00, 0x00, 0x40, 0x00, 0x00, 0x00, 0x03, 0x00, 0x00, 0x00, 
0xff, 0xff, 0xff, 0xff, 0x80, 0x00, 0x00, 0x00, 0x06, 0x00, 0x00, 0x00, 
0x04, 0x00, 0x04, 0x00, 0x04, 0x00, 0x00, 0x00, 0x1e, 0x00, 0x00, 0x00, 
0x73, 0x65, 0x72, 0x76, 0x69, 0x6e, 0x67, 0x5f, 0x64, 0x65, 0x66, 0x61, 
0x75, 0x6c, 0x74, 0x5f, 0x6b, 0x65, 0x72, 0x61, 0x73, 0x5f, 0x74, 0x65, 
0x6e, 0x73, 0x6f, 0x72, 0x3a, 0x30, 0x00, 0x00, 0x03, 0x00, 0x00, 0x00, 
0x01, 0x00, 0x00, 0x00, 0x80, 0x00, 0x00, 0x00, 0x06, 0x00, 0x00, 0x00, 
0x07, 0x00, 0x00, 0x00, 0x80, 0x00, 0x00, 0x00, 0x60, 0x00, 0x00, 0x00, 
0x44, 0x00, 0x00, 0x00, 0x34, 0x00, 0x00, 0x00, 0x24, 0x00, 0x00, 0x00, 
0x14, 0x00, 0x00, 0x00, 0x04, 0x00, 0x00, 0x00, 0xa8, 0xff, 0xff, 0xff, 
0x19, 0x00, 0x00, 0x00, 0x00, 0x00, 0x00, 0x19, 0xb4, 0xff, 0xff, 0xff, 
0x09, 0x00, 0x00, 0x00, 0x00, 0x00, 0x00, 0x09, 0xc0, 0xff, 0xff, 0xff, 
0x28, 0x00, 0x00, 0x00, 0x00, 0x00, 0x00, 0x28, 0xcc, 0xff, 0xff, 0xff, 
0x11, 0x00, 0x00, 0x00, 0x00, 0x00, 0x00, 0x11, 0xd8, 0xff, 0xff, 0xff, 
0x16, 0x00, 0x00, 0x00, 0x00, 0x00, 0x00, 0x16, 0x0c, 0x00, 0x10, 0x00, 
0x0f, 0x00, 0x00, 0x00, 0x08, 0x00, 0x04, 0x00, 0x0c, 0x00, 0x00, 0x00, 
0x03, 0x00, 0x00, 0x00, 0x05, 0x00, 0x00, 0x00, 0x00, 0x00, 0x00, 0x03, 
0x0c, 0x00, 0x0c, 0x00, 0x0b, 0x00, 0x00, 0x00, 0x00, 0x00, 0x04, 0x00, 
0x0c, 0x00, 0x00, 0x00, 0x46, 0x00, 0x00, 0x00, 0x00, 0x00, 0x00, 0x46, 

};
